{
  "version": "1.0",
  "truncation": null,
  "padding": null,
  "added_tokens": [
    {
      "id": 0,
      "content": "[UNK]",
      "single_word": false,
      "lstrip": false,
      "rstrip": false,
      "normalized": false,
      "special": true
    },
    {
      "id": 1,
      "content": "[CLS]",
      "single_word": false,
      "lstrip": false,
      "rstrip": false,
      "normalized": false,
      "special": true
    },
    {
      "id": 2,
      "content": "[SEP]",
      "single_word": false,
      "lstrip": false,
      "rstrip": false,
      "normalized": false,
      "special": true
    },
    {
      "id": 3,
      "content": "[PAD]",
      "single_word": false,
      "lstrip": false,
      "rstrip": false,
      "normalized": false,
      "special": true
    },
    {
      "id": 4,
      "content": "[MASK]",
      "single_word": false,
      "lstrip": false,
      "rstrip": false,
      "normalized": false,
      "special": true
    }
  ],
  "normalizer": null,
  "pre_tokenizer": {
    "type": "Whitespace"
  },
  "post_processor": null,
  "decoder": null,
  "model": {
    "type": "BPE",
    "dropout": null,
    "unk_token": null,
    "continuing_subword_prefix": null,
    "end_of_word_suffix": null,
    "fuse_unk": false,
    "byte_fallback": false,
    "ignore_merges": false,
    "vocab": {
      "[UNK]": 0,
      "[CLS]": 1,
      "[SEP]": 2,
      "[PAD]": 3,
      "[MASK]": 4,
      "\u001b": 5,
      "!": 6,
      "\"": 7,
      "#": 8,
      "$": 9,
      "%": 10,
      "&": 11,
      "'": 12,
      "(": 13,
      ")": 14,
      "*": 15,
      "+": 16,
      ",": 17,
      "-": 18,
      ".": 19,
      "/": 20,
      "0": 21,
      "1": 22,
      "2": 23,
      "3": 24,
      "4": 25,
      "5": 26,
      "6": 27,
      "7": 28,
      "8": 29,
      "9": 30,
      ":": 31,
      ";": 32,
      "<": 33,
      "=": 34,
      ">": 35,
      "?": 36,
      "@": 37,
      "A": 38,
      "B": 39,
      "C": 40,
      "D": 41,
      "E": 42,
      "F": 43,
      "G": 44,
      "H": 45,
      "I": 46,
      "J": 47,
      "K": 48,
      "L": 49,
      "M": 50,
      "N": 51,
      "O": 52,
      "P": 53,
      "Q": 54,
      "R": 55,
      "S": 56,
      "T": 57,
      "U": 58,
      "V": 59,
      "W": 60,
      "X": 61,
      "Y": 62,
      "Z": 63,
      "[": 64,
      "\\": 65,
      "]": 66,
      "^": 67,
      "_": 68,
      "`": 69,
      "a": 70,
      "b": 71,
      "c": 72,
      "d": 73,
      "e": 74,
      "f": 75,
      "g": 76,
      "h": 77,
      "i": 78,
      "j": 79,
      "k": 80,
      "l": 81,
      "m": 82,
      "n": 83,
      "o": 84,
      "p": 85,
      "q": 86,
      "r": 87,
      "s": 88,
      "t": 89,
      "u": 90,
      "v": 91,
      "w": 92,
      "x": 93,
      "y": 94,
      "z": 95,
      "{": 96,
      "|": 97,
      "}": 98,
      "~": 99,
      "¡": 100,
      "¢": 101,
      "£": 102,
      "¤": 103,
      "¥": 104,
      "¦": 105,
      "§": 106,
      "¨": 107,
      "©": 108,
      "ª": 109,
      "«": 110,
      "¬": 111,
      "®": 112,
      "¯": 113,
      "°": 114,
      "±": 115,
      "²": 116,
      "³": 117,
      "´": 118,
      "µ": 119,
      "¶": 120,
      "·": 121,
      "¸": 122,
      "¹": 123,
      "º": 124,
      "»": 125,
      "¼": 126,
      "½": 127,
      "¾": 128,
      "¿": 129,
      "À": 130,
      "Á": 131,
      "Â": 132,
      "Ã": 133,
      "Ä": 134,
      "Å": 135,
      "Ç": 136,
      "È": 137,
      "É": 138,
      "Ê": 139,
      "Ë": 140,
      "Ì": 141,
      "Í": 142,
      "Ï": 143,
      "Ñ": 144,
      "Ò": 145,
      "Ó": 146,
      "Ô": 147,
      "Ö": 148,
      "×": 149,
      "Ø": 150,
      "Ú": 151,
      "Û": 152,
      "Ü": 153,
      "Þ": 154,
      "ß": 155,
      "à": 156,
      "á": 157,
      "â": 158,
      "ã": 159,
      "ä": 160,
      "å": 161,
      "æ": 162,
      "ç": 163,
      "è": 164,
      "é": 165,
      "ê": 166,
      "ë": 167,
      "ì": 168,
      "í": 169,
      "î": 170,
      "ï": 171,
      "ð": 172,
      "ñ": 173,
      "ò": 174,
      "ó": 175,
      "ô": 176,
      "õ": 177,
      "ö": 178,
      "÷": 179,
      "ø": 180,
      "ù": 181,
      "ú": 182,
      "û": 183,
      "ü": 184,
      "ý": 185,
      "þ": 186,
      "ă": 187,
      "ą": 188,
      "ć": 189,
      "Č": 190,
      "č": 191,
      "ď": 192,
      "Đ": 193,
      "đ": 194,
      "ē": 195,
      "ę": 196,
      "ě": 197,
      "ğ": 198,
      "ĩ": 199,
      "İ": 200,
      "ı": 201,
      "ĺ": 202,
      "ł": 203,
      "ń": 204,
      "ō": 205,
      "Ś": 206,
      "ś": 207,
      "Ş": 208,
      "ş": 209,
      "š": 210,
      "ť": 211,
      "ũ": 212,
      "ű": 213,
      "ŷ": 214,
      "Ÿ": 215,
      "ż": 216,
      "Ž": 217,
      "ž": 218,
      "ƒ": 219,
      "Ơ": 220,
      "ơ": 221,
      "Ư": 222,
      "ư": 223,
      "ș": 224,
      "ț": 225,
      "ɑ": 226,
      "ɔ": 227,
      "ə": 228,
      "ɛ": 229,
      "ɣ": 230,
      "ɾ": 231,
      "ˆ": 232,
      "ˈ": 233,
      "ː": 234,
      "˜": 235,
      "́": 236,
      "̃": 237,
      "̈": 238,
      "̌": 239,
      "̧": 240,
      "Α": 241,
      "Β": 242,
      "Γ": 243,
      "Δ": 244,
      "Ε": 245,
      "Ζ": 246,
      "Η": 247,
      "Θ": 248,
      "Ι": 249,
      "Κ": 250,
      "Λ": 251,
      "Μ": 252,
      "Ν": 253,
      "Ξ": 254,
      "Ο": 255,
      "Π": 256,
      "Ρ": 257,
      "Σ": 258,
      "Τ": 259,
      "Υ": 260,
      "Φ": 261,
      "Χ": 262,
      "Ψ": 263,
      "Ω": 264,
      "έ": 265,
      "α": 266,
      "β": 267,
      "γ": 268,
      "δ": 269,
      "ε": 270,
      "ζ": 271,
      "η": 272,
      "θ": 273,
      "ι": 274,
      "κ": 275,
      "λ": 276,
      "μ": 277,
      "ν": 278,
      "ξ": 279,
      "ο": 280,
      "π": 281,
      "ρ": 282,
      "ς": 283,
      "σ": 284,
      "τ": 285,
      "υ": 286,
      "φ": 287,
      "χ": 288,
      "ψ": 289,
      "ω": 290,
      "Ё": 291,
      "І": 292,
      "А": 293,
      "Б": 294,
      "В": 295,
      "Г": 296,
      "Д": 297,
      "Е": 298,
      "Ж": 299,
      "З": 300,
      "И": 301,
      "Й": 302,
      "К": 303,
      "Л": 304,
      "М": 305,
      "Н": 306,
      "О": 307,
      "П": 308,
      "Р": 309,
      "С": 310,
      "Т": 311,
      "У": 312,
      "Ф": 313,
      "Х": 314,
      "Ц": 315,
      "Ч": 316,
      "Ш": 317,
      "Щ": 318,
      "Ы": 319,
      "Ь": 320,
      "Э": 321,
      "Ю": 322,
      "Я": 323,
      "а": 324,
      "б": 325,
      "в": 326,
      "г": 327,
      "д": 328,
      "е": 329,
      "ж": 330,
      "з": 331,
      "и": 332,
      "й": 333,
      "к": 334,
      "л": 335,
      "м": 336,
      "н": 337,
      "о": 338,
      "п": 339,
      "р": 340,
      "с": 341,
      "т": 342,
      "у": 343,
      "ф": 344,
      "х": 345,
      "ц": 346,
      "ч": 347,
      "ш": 348,
      "щ": 349,
      "ъ": 350,
      "ы": 351,
      "ь": 352,
      "э": 353,
      "ю": 354,
      "я": 355,
      "ё": 356,
      "ђ": 357,
      "ѓ": 358,
      "є": 359,
      "і": 360,
      "ї": 361,
      "љ": 362,
      "њ": 363,
      "ћ": 364,
      "ќ": 365,
      "ў": 366,
      "џ": 367,
      "ґ": 368,
      "ғ": 369,
      "א": 370,
      "ב": 371,
      "ג": 372,
      "ה": 373,
      "ו": 374,
      "ז": 375,
      "ח": 376,
      "י": 377,
      "ל": 378,
      "ם": 379,
      "מ": 380,
      "נ": 381,
      "פ": 382,
      "צ": 383,
      "ק": 384,
      "ר": 385,
      "،": 386,
      "؛": 387,
      "؟": 388,
      "ء": 389,
      "آ": 390,
      "أ": 391,
      "ؤ": 392,
      "إ": 393,
      "ئ": 394,
      "ا": 395,
      "ب": 396,
      "ة": 397,
      "ت": 398,
      "ث": 399,
      "ج": 400,
      "ح": 401,
      "خ": 402,
      "د": 403,
      "ذ": 404,
      "ر": 405,
      "ز": 406,
      "س": 407,
      "ش": 408,
      "ص": 409,
      "ض": 410,
      "ط": 411,
      "ظ": 412,
      "ع": 413,
      "غ": 414,
      "ـ": 415,
      "ف": 416,
      "ق": 417,
      "ك": 418,
      "ل": 419,
      "م": 420,
      "ن": 421,
      "ه": 422,
      "و": 423,
      "ى": 424,
      "ي": 425,
      "ً": 426,
      "ٌ": 427,
      "ٍ": 428,
      "َ": 429,
      "ُ": 430,
      "ِ": 431,
      "ّ": 432,
      "ْ": 433,
      "٬": 434,
      "ٹ": 435,
      "پ": 436,
      "چ": 437,
      "ڈ": 438,
      "ڑ": 439,
      "ک": 440,
      "گ": 441,
      "ں": 442,
      "ھ": 443,
      "ہ": 444,
      "ی": 445,
      "ے": 446,
      "۔": 447,
      "۞": 448,
      "۩": 449,
      "क": 450,
      "न": 451,
      "र": 452,
      "ह": 453,
      "ा": 454,
      "ै": 455,
      "।": 456,
      "॥": 457,
      "ঁ": 458,
      "ং": 459,
      "ঃ": 460,
      "অ": 461,
      "আ": 462,
      "ই": 463,
      "ঈ": 464,
      "উ": 465,
      "ঊ": 466,
      "ঋ": 467,
      "এ": 468,
      "ঐ": 469,
      "ও": 470,
      "ঔ": 471,
      "ক": 472,
      "খ": 473,
      "গ": 474,
      "ঘ": 475,
      "ঙ": 476,
      "চ": 477,
      "ছ": 478,
      "জ": 479,
      "ঝ": 480,
      "ঞ": 481,
      "ট": 482,
      "ঠ": 483,
      "ড": 484,
      "ঢ": 485,
      "ণ": 486,
      "ত": 487,
      "থ": 488,
      "দ": 489,
      "ধ": 490,
      "ন": 491,
      "প": 492,
      "ফ": 493,
      "ব": 494,
      "ভ": 495,
      "ম": 496,
      "য": 497,
      "র": 498,
      "ল": 499,
      "শ": 500,
      "ষ": 501,
      "স": 502,
      "হ": 503,
      "়": 504,
      "া": 505,
      "ি": 506,
      "ী": 507,
      "ু": 508,
      "ূ": 509,
      "ৃ": 510,
      "ে": 511,
      "ৈ": 512,
      "ো": 513,
      "ৌ": 514,
      "্": 515,
      "ৎ": 516,
      "ড়": 517,
      "ঢ়": 518,
      "য়": 519,
      "০": 520,
      "১": 521,
      "২": 522,
      "৩": 523,
      "৪": 524,
      "৫": 525,
      "৬": 526,
      "৭": 527,
      "৮": 528,
      "৯": 529,
      "৳": 530,
      "৷": 531,
      "ก": 532,
      "ข": 533,
      "ค": 534,
      "ง": 535,
      "ช": 536,
      "ด": 537,
      "ต": 538,
      "ท": 539,
      "น": 540,
      "บ": 541,
      "ป": 542,
      "ผ": 543,
      "ม": 544,
      "ย": 545,
      "ร": 546,
      "ล": 547,
      "ว": 548,
      "ศ": 549,
      "ส": 550,
      "อ": 551,
      "ฯ": 552,
      "ะ": 553,
      "ั": 554,
      "า": 555,
      "ำ": 556,
      "ี": 557,
      "ื": 558,
      "ุ": 559,
      "ู": 560,
      "เ": 561,
      "แ": 562,
      "ใ": 563,
      "ๆ": 564,
      "่": 565,
      "้": 566,
      "๑": 567,
      "๛": 568,
      "ᄀ": 569,
      "ᄂ": 570,
      "ᄃ": 571,
      "ᄅ": 572,
      "ᄆ": 573,
      "ᄇ": 574,
      "ᄉ": 575,
      "ᄋ": 576,
      "ᄌ": 577,
      "ᄎ": 578,
      "ᄏ": 579,
      "ᄐ": 580,
      "ᄑ": 581,
      "ᄒ": 582,
      "ᅡ": 583,
      "ᅢ": 584,
      "ᅥ": 585,
      "ᅦ": 586,
      "ᅧ": 587,
      "ᅨ": 588,
      "ᅩ": 589,
      "ᅭ": 590,
      "ᅮ": 591,
      "ᅲ": 592,
      "ᅳ": 593,
      "ᅵ": 594,
      "ᆨ": 595,
      "ᆫ": 596,
      "ᆯ": 597,
      "ᆷ": 598,
      "ᆸ": 599,
      "ᆼ": 600,
      "ᴅ": 601,
      "ᴜ": 602,
      "Ạ": 603,
      "ạ": 604,
      "Ả": 605,
      "ả": 606,
      "Ấ": 607,
      "ấ": 608,
      "Ầ": 609,
      "ầ": 610,
      "ẩ": 611,
      "Ẫ": 612,
      "ẫ": 613,
      "Ậ": 614,
      "ậ": 615,
      "ắ": 616,
      "Ằ": 617,
      "ằ": 618,
      "ẳ": 619,
      "ẵ": 620,
      "Ặ": 621,
      "ặ": 622,
      "ẹ": 623,
      "ẻ": 624,
      "ẽ": 625,
      "Ế": 626,
      "ế": 627,
      "ề": 628,
      "Ể": 629,
      "ể": 630,
      "ễ": 631,
      "Ệ": 632,
      "ệ": 633,
      "ỉ": 634,
      "Ị": 635,
      "ị": 636,
      "Ọ": 637,
      "ọ": 638,
      "ỏ": 639,
      "Ố": 640,
      "ố": 641,
      "Ồ": 642,
      "ồ": 643,
      "ổ": 644,
      "ỗ": 645,
      "Ộ": 646,
      "ộ": 647,
      "ớ": 648,
      "Ờ": 649,
      "ờ": 650,
      "ở": 651,
      "ỡ": 652,
      "Ợ": 653,
      "ợ": 654,
      "ụ": 655,
      "ủ": 656,
      "ứ": 657,
      "Ừ": 658,
      "ừ": 659,
      "ử": 660,
      "ữ": 661,
      "Ự": 662,
      "ự": 663,
      "ỳ": 664,
      "ỵ": 665,
      "Ỷ": 666,
      "ỷ": 667,
      "ỹ": 668,
      "‐": 669,
      "‑": 670,
      "–": 671,
      "—": 672,
      "―": 673,
      "‘": 674,
      "’": 675,
      "‚": 676,
      "“": 677,
      "”": 678,
      "„": 679,
      "†": 680,
      "‡": 681,
      "•": 682,
      "…": 683,
      "‰": 684,
      "′": 685,
      "″": 686,
      "‹": 687,
      "›": 688,
      "⁰": 689,
      "⁶": 690,
      "⁻": 691,
      "₀": 692,
      "₁": 693,
      "₋": 694,
      "ₑ": 695,
      "₤": 696,
      "€": 697,
      "₸": 698,
      "₹": 699,
      "₽": 700,
      "ℎ": 701,
      "ℓ": 702,
      "№": 703,
      "™": 704,
      "Ω": 705,
      "⅐": 706,
      "⅑": 707,
      "⅒": 708,
      "⅓": 709,
      "⅔": 710,
      "⅕": 711,
      "⅖": 712,
      "⅗": 713,
      "⅘": 714,
      "⅙": 715,
      "⅚": 716,
      "⅛": 717,
      "⅜": 718,
      "⅝": 719,
      "⅞": 720,
      "⅟": 721,
      "↉": 722,
      "←": 723,
      "↑": 724,
      "→": 725,
      "↓": 726,
      "⇒": 727,
      "∅": 728,
      "∈": 729,
      "−": 730,
      "∙": 731,
      "√": 732,
      "∝": 733,
      "∞": 734,
      "∼": 735,
      "≠": 736,
      "≤": 737,
      "≥": 738,
      "⊕": 739,
      "⋅": 740,
      "⌚": 741,
      "⏏": 742,
      "⏩": 743,
      "①": 744,
      "②": 745,
      "③": 746,
      "Ⓜ": 747,
      "ⓘ": 748,
      "─": 749,
      "│": 750,
      "└": 751,
      "├": 752,
      "═": 753,
      "║": 754,
      "╔": 755,
      "╗": 756,
      "╚": 757,
      "╣": 758,
      "╦": 759,
      "╩": 760,
      "▀": 761,
      "▁": 762,
      "▄": 763,
      "█": 764,
      "░": 765,
      "▒": 766,
      "▓": 767,
      "■": 768,
      "▪": 769,
      "▬": 770,
      "▲": 771,
      "▶": 772,
      "►": 773,
      "▼": 774,
      "▾": 775,
      "●": 776,
      "◦": 777,
      "☀": 778,
      "☁": 779,
      "★": 780,
      "☆": 781,
      "☑": 782,
      "☔": 783,
      "☝": 784,
      "☠": 785,
      "☹": 786,
      "☺": 787,
      "♀": 788,
      "♂": 789,
      "♥": 790,
      "♦": 791,
      "♪": 792,
      "♫": 793,
      "⚠": 794,
      "⚡": 795,
      "⚽": 796,
      "⛳": 797,
      "✂": 798,
      "✅": 799,
      "✈": 800,
      "✋": 801,
      "✌": 802,
      "✓": 803,
      "✨": 804,
      "❌": 805,
      "❗": 806,
      "❤": 807,
      "➖": 808,
      "➰": 809,
      "⭕": 810,
      "⮞": 811,
      "⯯": 812,
      "、": 813,
      "。": 814,
      "々": 815,
      "《": 816,
      "》": 817,
      "「": 818,
      "」": 819,
      "『": 820,
      "』": 821,
      "【": 822,
      "】": 823,
      "〰": 824,
      "あ": 825,
      "い": 826,
      "う": 827,
      "え": 828,
      "お": 829,
      "か": 830,
      "が": 831,
      "き": 832,
      "ぎ": 833,
      "く": 834,
      "け": 835,
      "げ": 836,
      "こ": 837,
      "ご": 838,
      "さ": 839,
      "し": 840,
      "す": 841,
      "ず": 842,
      "せ": 843,
      "そ": 844,
      "た": 845,
      "だ": 846,
      "ち": 847,
      "っ": 848,
      "つ": 849,
      "て": 850,
      "で": 851,
      "と": 852,
      "ど": 853,
      "な": 854,
      "に": 855,
      "ね": 856,
      "の": 857,
      "は": 858,
      "ば": 859,
      "ひ": 860,
      "び": 861,
      "ぶ": 862,
      "へ": 863,
      "べ": 864,
      "ぺ": 865,
      "ほ": 866,
      "ぼ": 867,
      "ぽ": 868,
      "ま": 869,
      "み": 870,
      "む": 871,
      "め": 872,
      "も": 873,
      "や": 874,
      "ょ": 875,
      "よ": 876,
      "ら": 877,
      "り": 878,
      "る": 879,
      "れ": 880,
      "わ": 881,
      "を": 882,
      "ん": 883,
      "ァ": 884,
      "ア": 885,
      "ィ": 886,
      "イ": 887,
      "ウ": 888,
      "ェ": 889,
      "エ": 890,
      "ォ": 891,
      "オ": 892,
      "カ": 893,
      "キ": 894,
      "ク": 895,
      "グ": 896,
      "ケ": 897,
      "コ": 898,
      "ゴ": 899,
      "サ": 900,
      "ザ": 901,
      "シ": 902,
      "ジ": 903,
      "ス": 904,
      "ズ": 905,
      "セ": 906,
      "ゼ": 907,
      "ソ": 908,
      "タ": 909,
      "ダ": 910,
      "チ": 911,
      "ッ": 912,
      "ツ": 913,
      "テ": 914,
      "デ": 915,
      "ト": 916,
      "ド": 917,
      "ニ": 918,
      "ネ": 919,
      "ノ": 920,
      "バ": 921,
      "パ": 922,
      "フ": 923,
      "ブ": 924,
      "プ": 925,
      "ベ": 926,
      "ポ": 927,
      "マ": 928,
      "ム": 929,
      "メ": 930,
      "モ": 931,
      "ャ": 932,
      "ヤ": 933,
      "ョ": 934,
      "ラ": 935,
      "リ": 936,
      "ル": 937,
      "レ": 938,
      "ロ": 939,
      "ン": 940,
      "・": 941,
      "ー": 942,
      "ㄱ": 943,
      "ㅎ": 944,
      "ㅏ": 945,
      "ㅣ": 946,
      "㎡": 947,
      "㓥": 948,
      "一": 949,
      "丁": 950,
      "七": 951,
      "万": 952,
      "丈": 953,
      "三": 954,
      "上": 955,
      "下": 956,
      "不": 957,
      "与": 958,
      "丑": 959,
      "专": 960,
      "且": 961,
      "世": 962,
      "丘": 963,
      "丙": 964,
      "业": 965,
      "丛": 966,
      "东": 967,
      "丝": 968,
      "両": 969,
      "丢": 970,
      "两": 971,
      "严": 972,
      "丧": 973,
      "个": 974,
      "丫": 975,
      "中": 976,
      "丰": 977,
      "串": 978,
      "临": 979,
      "丸": 980,
      "丹": 981,
      "为": 982,
      "主": 983,
      "丽": 984,
      "举": 985,
      "乃": 986,
      "久": 987,
      "么": 988,
      "义": 989,
      "之": 990,
      "乌": 991,
      "乍": 992,
      "乎": 993,
      "乏": 994,
      "乐": 995,
      "乒": 996,
      "乓": 997,
      "乔": 998,
      "乖": 999,
      "乗": 1000,
      "乘": 1001,
      "乙": 1002,
      "九": 1003,
      "乞": 1004,
      "也": 1005,
      "习": 1006,
      "乡": 1007,
      "书": 1008,
      "买": 1009,
      "乱": 1010,
      "乳": 1011,
      "乾": 1012,
      "了": 1013,
      "予": 1014,
      "争": 1015,
      "事": 1016,
      "二": 1017,
      "于": 1018,
      "亏": 1019,
      "云": 1020,
      "互": 1021,
      "五": 1022,
      "井": 1023,
      "亚": 1024,
      "些": 1025,
      "亜": 1026,
      "亡": 1027,
      "亢": 1028,
      "交": 1029,
      "亥": 1030,
      "亦": 1031,
      "产": 1032,
      "亨": 1033,
      "亩": 1034,
      "享": 1035,
      "京": 1036,
      "亭": 1037,
      "亮": 1038,
      "亲": 1039,
      "人": 1040,
      "亿": 1041,
      "什": 1042,
      "仁": 1043,
      "仅": 1044,
      "仆": 1045,
      "仇": 1046,
      "今": 1047,
      "介": 1048,
      "仍": 1049,
      "从": 1050,
      "仑": 1051,
      "仓": 1052,
      "仔": 1053,
      "仕": 1054,
      "他": 1055,
      "仗": 1056,
      "付": 1057,
      "仙": 1058,
      "仟": 1059,
      "代": 1060,
      "令": 1061,
      "以": 1062,
      "仪": 1063,
      "们": 1064,
      "仰": 1065,
      "仲": 1066,
      "件": 1067,
      "价": 1068,
      "任": 1069,
      "份": 1070,
      "仿": 1071,
      "企": 1072,
      "伊": 1073,
      "伍": 1074,
      "伎": 1075,
      "伏": 1076,
      "伐": 1077,
      "休": 1078,
      "众": 1079,
      "优": 1080,
      "伙": 1081,
      "会": 1082,
      "伞": 1083,
      "伟": 1084,
      "传": 1085,
      "伤": 1086,
      "伦": 1087,
      "伪": 1088,
      "伯": 1089,
      "估": 1090,
      "伴": 1091,
      "伶": 1092,
      "伸": 1093,
      "伺": 1094,
      "似": 1095,
      "佃": 1096,
      "但": 1097,
      "佈": 1098,
      "位": 1099,
      "低": 1100,
      "住": 1101,
      "佐": 1102,
      "佑": 1103,
      "体": 1104,
      "何": 1105,
      "余": 1106,
      "佛": 1107,
      "作": 1108,
      "你": 1109,
      "佣": 1110,
      "佩": 1111,
      "佬": 1112,
      "佯": 1113,
      "佰": 1114,
      "佳": 1115,
      "使": 1116,
      "侄": 1117,
      "侈": 1118,
      "例": 1119,
      "侍": 1120,
      "侗": 1121,
      "供": 1122,
      "依": 1123,
      "侠": 1124,
      "価": 1125,
      "侣": 1126,
      "侥": 1127,
      "侦": 1128,
      "侧": 1129,
      "侨": 1130,
      "侩": 1131,
      "侮": 1132,
      "侯": 1133,
      "侵": 1134,
      "便": 1135,
      "係": 1136,
      "促": 1137,
      "俄": 1138,
      "俊": 1139,
      "俏": 1140,
      "俐": 1141,
      "俗": 1142,
      "俘": 1143,
      "保": 1144,
      "俞": 1145,
      "信": 1146,
      "俩": 1147,
      "俭": 1148,
      "修": 1149,
      "俯": 1150,
      "俱": 1151,
      "俺": 1152,
      "倉": 1153,
      "個": 1154,
      "倍": 1155,
      "倒": 1156,
      "倔": 1157,
      "倘": 1158,
      "候": 1159,
      "倚": 1160,
      "借": 1161,
      "倡": 1162,
      "値": 1163,
      "倦": 1164,
      "倪": 1165,
      "债": 1166,
      "值": 1167,
      "倾": 1168,
      "假": 1169,
      "偏": 1170,
      "做": 1171,
      "停": 1172,
      "健": 1173,
      "偶": 1174,
      "偷": 1175,
      "偿": 1176,
      "傀": 1177,
      "傅": 1178,
      "傈": 1179,
      "傍": 1180,
      "傣": 1181,
      "储": 1182,
      "催": 1183,
      "傲": 1184,
      "傻": 1185,
      "傾": 1186,
      "像": 1187,
      "僚": 1188,
      "僧": 1189,
      "僳": 1190,
      "僵": 1191,
      "價": 1192,
      "僻": 1193,
      "儒": 1194,
      "儡": 1195,
      "儿": 1196,
      "允": 1197,
      "元": 1198,
      "兄": 1199,
      "充": 1200,
      "兆": 1201,
      "先": 1202,
      "光": 1203,
      "克": 1204,
      "免": 1205,
      "兑": 1206,
      "兔": 1207,
      "党": 1208,
      "兜": 1209,
      "兢": 1210,
      "入": 1211,
      "全": 1212,
      "八": 1213,
      "公": 1214,
      "六": 1215,
      "兰": 1216,
      "共": 1217,
      "关": 1218,
      "兴": 1219,
      "兵": 1220,
      "其": 1221,
      "具": 1222,
      "典": 1223,
      "兹": 1224,
      "养": 1225,
      "兼": 1226,
      "兽": 1227,
      "冀": 1228,
      "内": 1229,
      "円": 1230,
      "冈": 1231,
      "冉": 1232,
      "册": 1233,
      "再": 1234,
      "冒": 1235,
      "冕": 1236,
      "冗": 1237,
      "写": 1238,
      "军": 1239,
      "农": 1240,
      "冠": 1241,
      "冤": 1242,
      "冬": 1243,
      "冯": 1244,
      "冰": 1245,
      "冲": 1246,
      "决": 1247,
      "况": 1248,
      "冶": 1249,
      "冷": 1250,
      "冻": 1251,
      "净": 1252,
      "凄": 1253,
      "准": 1254,
      "凉": 1255,
      "凋": 1256,
      "凌": 1257,
      "减": 1258,
      "凑": 1259,
      "凛": 1260,
      "凝": 1261,
      "几": 1262,
      "凡": 1263,
      "凤": 1264,
      "処": 1265,
      "凭": 1266,
      "凯": 1267,
      "凰": 1268,
      "凳": 1269,
      "凶": 1270,
      "凸": 1271,
      "凹": 1272,
      "出": 1273,
      "击": 1274,
      "函": 1275,
      "凿": 1276,
      "刀": 1277,
      "刁": 1278,
      "刃": 1279,
      "分": 1280,
      "切": 1281,
      "刊": 1282,
      "刑": 1283,
      "划": 1284,
      "列": 1285,
      "刘": 1286,
      "则": 1287,
      "刚": 1288,
      "创": 1289,
      "初": 1290,
      "删": 1291,
      "判": 1292,
      "別": 1293,
      "刨": 1294,
      "利": 1295,
      "别": 1296,
      "刮": 1297,
      "到": 1298,
      "制": 1299,
      "刷": 1300,
      "券": 1301,
      "刹": 1302,
      "刺": 1303,
      "刻": 1304,
      "刽": 1305,
      "剁": 1306,
      "剂": 1307,
      "剃": 1308,
      "則": 1309,
      "削": 1310,
      "前": 1311,
      "剐": 1312,
      "剑": 1313,
      "剔": 1314,
      "剖": 1315,
      "剥": 1316,
      "剧": 1317,
      "剩": 1318,
      "剪": 1319,
      "副": 1320,
      "割": 1321,
      "剿": 1322,
      "劈": 1323,
      "力": 1324,
      "劝": 1325,
      "办": 1326,
      "功": 1327,
      "加": 1328,
      "务": 1329,
      "劣": 1330,
      "动": 1331,
      "助": 1332,
      "努": 1333,
      "劫": 1334,
      "励": 1335,
      "劲": 1336,
      "劳": 1337,
      "効": 1338,
      "势": 1339,
      "勃": 1340,
      "勇": 1341,
      "勉": 1342,
      "勋": 1343,
      "勒": 1344,
      "動": 1345,
      "勘": 1346,
      "務": 1347,
      "募": 1348,
      "勤": 1349,
      "勬": 1350,
      "勺": 1351,
      "勾": 1352,
      "勿": 1353,
      "匀": 1354,
      "包": 1355,
      "匆": 1356,
      "匈": 1357,
      "化": 1358,
      "北": 1359,
      "匙": 1360,
      "匝": 1361,
      "匠": 1362,
      "匡": 1363,
      "匣": 1364,
      "匪": 1365,
      "匹": 1366,
      "区": 1367,
      "医": 1368,
      "匿": 1369,
      "區": 1370,
      "十": 1371,
      "千": 1372,
      "升": 1373,
      "午": 1374,
      "卉": 1375,
      "半": 1376,
      "华": 1377,
      "协": 1378,
      "卐": 1379,
      "卑": 1380,
      "卒": 1381,
      "卓": 1382,
      "单": 1383,
      "卖": 1384,
      "南": 1385,
      "単": 1386,
      "博": 1387,
      "卜": 1388,
      "卞": 1389,
      "占": 1390,
      "卡": 1391,
      "卢": 1392,
      "卤": 1393,
      "卧": 1394,
      "卫": 1395,
      "卯": 1396,
      "印": 1397,
      "危": 1398,
      "即": 1399,
      "却": 1400,
      "卵": 1401,
      "卷": 1402,
      "卸": 1403,
      "卿": 1404,
      "厂": 1405,
      "厄": 1406,
      "厅": 1407,
      "历": 1408,
      "厉": 1409,
      "压": 1410,
      "厌": 1411,
      "厕": 1412,
      "厘": 1413,
      "厚": 1414,
      "原": 1415,
      "厢": 1416,
      "厦": 1417,
      "厨": 1418,
      "厩": 1419,
      "去": 1420,
      "县": 1421,
      "叁": 1422,
      "参": 1423,
      "參": 1424,
      "又": 1425,
      "叉": 1426,
      "及": 1427,
      "友": 1428,
      "双": 1429,
      "反": 1430,
      "发": 1431,
      "叔": 1432,
      "取": 1433,
      "受": 1434,
      "变": 1435,
      "叙": 1436,
      "叛": 1437,
      "叠": 1438,
      "口": 1439,
      "古": 1440,
      "句": 1441,
      "另": 1442,
      "只": 1443,
      "叫": 1444,
      "召": 1445,
      "叭": 1446,
      "叮": 1447,
      "可": 1448,
      "台": 1449,
      "史": 1450,
      "右": 1451,
      "叶": 1452,
      "号": 1453,
      "司": 1454,
      "叹": 1455,
      "叼": 1456,
      "吁": 1457,
      "吃": 1458,
      "各": 1459,
      "合": 1460,
      "吉": 1461,
      "吊": 1462,
      "同": 1463,
      "名": 1464,
      "后": 1465,
      "吏": 1466,
      "吐": 1467,
      "向": 1468,
      "吓": 1469,
      "吕": 1470,
      "吗": 1471,
      "君": 1472,
      "吝": 1473,
      "吞": 1474,
      "吟": 1475,
      "吠": 1476,
      "否": 1477,
      "吧": 1478,
      "吨": 1479,
      "吩": 1480,
      "含": 1481,
      "听": 1482,
      "吭": 1483,
      "吮": 1484,
      "启": 1485,
      "吱": 1486,
      "吴": 1487,
      "吵": 1488,
      "吸": 1489,
      "吹": 1490,
      "吻": 1491,
      "吼": 1492,
      "吾": 1493,
      "呀": 1494,
      "呆": 1495,
      "呈": 1496,
      "告": 1497,
      "呐": 1498,
      "呕": 1499,
      "员": 1500,
      "呛": 1501,
      "呜": 1502,
      "呢": 1503,
      "周": 1504,
      "味": 1505,
      "呵": 1506,
      "呸": 1507,
      "呻": 1508,
      "呼": 1509,
      "命": 1510,
      "咀": 1511,
      "咆": 1512,
      "咋": 1513,
      "和": 1514,
      "咎": 1515,
      "咏": 1516,
      "咐": 1517,
      "咒": 1518,
      "咕": 1519,
      "咖": 1520,
      "咙": 1521,
      "咨": 1522,
      "咬": 1523,
      "咯": 1524,
      "咱": 1525,
      "咳": 1526,
      "咸": 1527,
      "咽": 1528,
      "哀": 1529,
      "品": 1530,
      "哄": 1531,
      "哆": 1532,
      "哇": 1533,
      "哈": 1534,
      "哉": 1535,
      "响": 1536,
      "哎": 1537,
      "哑": 1538,
      "哗": 1539,
      "哟": 1540,
      "員": 1541,
      "哥": 1542,
      "哦": 1543,
      "哨": 1544,
      "哩": 1545,
      "哪": 1546,
      "哭": 1547,
      "哮": 1548,
      "哲": 1549,
      "哺": 1550,
      "哼": 1551,
      "唁": 1552,
      "唆": 1553,
      "唇": 1554,
      "唉": 1555,
      "唐": 1556,
      "唤": 1557,
      "唬": 1558,
      "售": 1559,
      "唯": 1560,
      "唱": 1561,
      "唾": 1562,
      "啃": 1563,
      "啄": 1564,
      "商": 1565,
      "啊": 1566,
      "問": 1567,
      "啡": 1568,
      "啤": 1569,
      "啥": 1570,
      "啦": 1571,
      "啪": 1572,
      "啮": 1573,
      "啸": 1574,
      "啼": 1575,
      "喀": 1576,
      "喂": 1577,
      "善": 1578,
      "喇": 1579,
      "喉": 1580,
      "喊": 1581,
      "喘": 1582,
      "喜": 1583,
      "喝": 1584,
      "喧": 1585,
      "喳": 1586,
      "喷": 1587,
      "喻": 1588,
      "嗅": 1589,
      "嗓": 1590,
      "嗜": 1591,
      "嗡": 1592,
      "嗣": 1593,
      "嗽": 1594,
      "嘉": 1595,
      "嘎": 1596,
      "嘘": 1597,
      "嘛": 1598,
      "嘱": 1599,
      "嘲": 1600,
      "嘴": 1601,
      "嘶": 1602,
      "嘻": 1603,
      "嘿": 1604,
      "噎": 1605,
      "器": 1606,
      "噪": 1607,
      "噬": 1608,
      "噶": 1609,
      "嚎": 1610,
      "嚏": 1611,
      "嚣": 1612,
      "嚷": 1613,
      "嚼": 1614,
      "囊": 1615,
      "囚": 1616,
      "四": 1617,
      "回": 1618,
      "因": 1619,
      "团": 1620,
      "囤": 1621,
      "园": 1622,
      "困": 1623,
      "囱": 1624,
      "図": 1625,
      "围": 1626,
      "固": 1627,
      "国": 1628,
      "图": 1629,
      "圃": 1630,
      "圆": 1631,
      "圈": 1632,
      "圍": 1633,
      "土": 1634,
      "圣": 1635,
      "在": 1636,
      "圭": 1637,
      "地": 1638,
      "场": 1639,
      "圾": 1640,
      "址": 1641,
      "均": 1642,
      "坊": 1643,
      "坍": 1644,
      "坎": 1645,
      "坏": 1646,
      "坐": 1647,
      "坑": 1648,
      "块": 1649,
      "坚": 1650,
      "坛": 1651,
      "坝": 1652,
      "坞": 1653,
      "坟": 1654,
      "坠": 1655,
      "坡": 1656,
      "坤": 1657,
      "坦": 1658,
      "坪": 1659,
      "坯": 1660,
      "坷": 1661,
      "垂": 1662,
      "垃": 1663,
      "垄": 1664,
      "型": 1665,
      "垒": 1666,
      "垛": 1667,
      "垢": 1668,
      "垣": 1669,
      "垦": 1670,
      "垫": 1671,
      "垮": 1672,
      "埂": 1673,
      "埃": 1674,
      "埋": 1675,
      "城": 1676,
      "埔": 1677,
      "域": 1678,
      "埠": 1679,
      "培": 1680,
      "基": 1681,
      "堂": 1682,
      "堆": 1683,
      "堑": 1684,
      "堕": 1685,
      "堡": 1686,
      "堤": 1687,
      "堪": 1688,
      "堰": 1689,
      "報": 1690,
      "場": 1691,
      "堵": 1692,
      "塌": 1693,
      "塑": 1694,
      "塔": 1695,
      "塘": 1696,
      "塞": 1697,
      "填": 1698,
      "境": 1699,
      "墅": 1700,
      "墒": 1701,
      "墓": 1702,
      "増": 1703,
      "墙": 1704,
      "增": 1705,
      "墟": 1706,
      "墨": 1707,
      "墩": 1708,
      "壁": 1709,
      "壕": 1710,
      "壤": 1711,
      "士": 1712,
      "壬": 1713,
      "壮": 1714,
      "声": 1715,
      "売": 1716,
      "壳": 1717,
      "壶": 1718,
      "壹": 1719,
      "处": 1720,
      "备": 1721,
      "変": 1722,
      "复": 1723,
      "夏": 1724,
      "夕": 1725,
      "外": 1726,
      "多": 1727,
      "夜": 1728,
      "够": 1729,
      "大": 1730,
      "天": 1731,
      "太": 1732,
      "夫": 1733,
      "央": 1734,
      "夯": 1735,
      "失": 1736,
      "头": 1737,
      "夷": 1738,
      "夸": 1739,
      "夹": 1740,
      "夺": 1741,
      "夾": 1742,
      "奄": 1743,
      "奇": 1744,
      "奈": 1745,
      "奉": 1746,
      "奋": 1747,
      "奎": 1748,
      "奏": 1749,
      "契": 1750,
      "奔": 1751,
      "奖": 1752,
      "套": 1753,
      "奠": 1754,
      "奢": 1755,
      "奥": 1756,
      "女": 1757,
      "奴": 1758,
      "奶": 1759,
      "奸": 1760,
      "她": 1761,
      "好": 1762,
      "如": 1763,
      "妄": 1764,
      "妆": 1765,
      "妇": 1766,
      "妈": 1767,
      "妊": 1768,
      "妒": 1769,
      "妓": 1770,
      "妖": 1771,
      "妙": 1772,
      "妥": 1773,
      "妨": 1774,
      "妮": 1775,
      "妹": 1776,
      "妻": 1777,
      "姆": 1778,
      "始": 1779,
      "姐": 1780,
      "姑": 1781,
      "姓": 1782,
      "委": 1783,
      "姚": 1784,
      "姜": 1785,
      "姥": 1786,
      "姨": 1787,
      "姬": 1788,
      "姻": 1789,
      "姿": 1790,
      "威": 1791,
      "娃": 1792,
      "娄": 1793,
      "娇": 1794,
      "娘": 1795,
      "娜": 1796,
      "娟": 1797,
      "娠": 1798,
      "娥": 1799,
      "娩": 1800,
      "娱": 1801,
      "娶": 1802,
      "婆": 1803,
      "婉": 1804,
      "婚": 1805,
      "婪": 1806,
      "婴": 1807,
      "婶": 1808,
      "婿": 1809,
      "媒": 1810,
      "媚": 1811,
      "媳": 1812,
      "嫁": 1813,
      "嫂": 1814,
      "嫉": 1815,
      "嫌": 1816,
      "嫡": 1817,
      "嫩": 1818,
      "子": 1819,
      "孔": 1820,
      "孕": 1821,
      "字": 1822,
      "存": 1823,
      "孙": 1824,
      "孜": 1825,
      "孝": 1826,
      "孟": 1827,
      "季": 1828,
      "孤": 1829,
      "学": 1830,
      "孩": 1831,
      "孪": 1832,
      "孰": 1833,
      "孵": 1834,
      "孺": 1835,
      "孽": 1836,
      "宁": 1837,
      "它": 1838,
      "宅": 1839,
      "宇": 1840,
      "守": 1841,
      "安": 1842,
      "宋": 1843,
      "完": 1844,
      "宏": 1845,
      "宗": 1846,
      "官": 1847,
      "宙": 1848,
      "定": 1849,
      "宛": 1850,
      "宜": 1851,
      "宝": 1852,
      "实": 1853,
      "実": 1854,
      "宠": 1855,
      "审": 1856,
      "客": 1857,
      "宣": 1858,
      "室": 1859,
      "宦": 1860,
      "宪": 1861,
      "宫": 1862,
      "宰": 1863,
      "害": 1864,
      "宴": 1865,
      "宵": 1866,
      "家": 1867,
      "容": 1868,
      "宽": 1869,
      "宾": 1870,
      "宿": 1871,
      "寂": 1872,
      "寄": 1873,
      "寅": 1874,
      "密": 1875,
      "寇": 1876,
      "富": 1877,
      "寐": 1878,
      "寒": 1879,
      "寓": 1880,
      "寝": 1881,
      "寞": 1882,
      "察": 1883,
      "寡": 1884,
      "寥": 1885,
      "寨": 1886,
      "寸": 1887,
      "对": 1888,
      "寺": 1889,
      "寻": 1890,
      "导": 1891,
      "対": 1892,
      "寿": 1893,
      "封": 1894,
      "射": 1895,
      "将": 1896,
      "尉": 1897,
      "尊": 1898,
      "對": 1899,
      "小": 1900,
      "少": 1901,
      "尔": 1902,
      "尖": 1903,
      "尘": 1904,
      "尚": 1905,
      "尝": 1906,
      "尤": 1907,
      "尧": 1908,
      "就": 1909,
      "尸": 1910,
      "尹": 1911,
      "尺": 1912,
      "尼": 1913,
      "尽": 1914,
      "尾": 1915,
      "尿": 1916,
      "局": 1917,
      "屁": 1918,
      "层": 1919,
      "居": 1920,
      "屈": 1921,
      "屉": 1922,
      "届": 1923,
      "屋": 1924,
      "屎": 1925,
      "屏": 1926,
      "屑": 1927,
      "展": 1928,
      "属": 1929,
      "屠": 1930,
      "屡": 1931,
      "層": 1932,
      "履": 1933,
      "屯": 1934,
      "山": 1935,
      "屹": 1936,
      "屿": 1937,
      "岁": 1938,
      "岂": 1939,
      "岔": 1940,
      "岗": 1941,
      "岛": 1942,
      "岩": 1943,
      "岭": 1944,
      "岳": 1945,
      "岸": 1946,
      "岿": 1947,
      "峙": 1948,
      "峡": 1949,
      "峦": 1950,
      "峨": 1951,
      "峪": 1952,
      "峭": 1953,
      "峰": 1954,
      "峻": 1955,
      "崇": 1956,
      "崎": 1957,
      "崔": 1958,
      "崖": 1959,
      "崩": 1960,
      "崭": 1961,
      "嵌": 1962,
      "巍": 1963,
      "川": 1964,
      "州": 1965,
      "巡": 1966,
      "巢": 1967,
      "工": 1968,
      "左": 1969,
      "巧": 1970,
      "巨": 1971,
      "巩": 1972,
      "巫": 1973,
      "差": 1974,
      "己": 1975,
      "已": 1976,
      "巳": 1977,
      "巴": 1978,
      "巷": 1979,
      "巾": 1980,
      "币": 1981,
      "市": 1982,
      "布": 1983,
      "帅": 1984,
      "帆": 1985,
      "师": 1986,
      "希": 1987,
      "帐": 1988,
      "帕": 1989,
      "帖": 1990,
      "帘": 1991,
      "帚": 1992,
      "帛": 1993,
      "帜": 1994,
      "帝": 1995,
      "带": 1996,
      "帧": 1997,
      "師": 1998,
      "席": 1999,
      "帮": 2000,
      "帰": 2001,
      "常": 2002,
      "帽": 2003,
      "幂": 2004,
      "幅": 2005,
      "幌": 2006,
      "幕": 2007,
      "幢": 2008,
      "干": 2009,
      "平": 2010,
      "年": 2011,
      "并": 2012,
      "幸": 2013,
      "幻": 2014,
      "幼": 2015,
      "幽": 2016,
      "幾": 2017,
      "广": 2018,
      "広": 2019,
      "庄": 2020,
      "庆": 2021,
      "庇": 2022,
      "床": 2023,
      "序": 2024,
      "庐": 2025,
      "库": 2026,
      "应": 2027,
      "底": 2028,
      "店": 2029,
      "庙": 2030,
      "庚": 2031,
      "府": 2032,
      "庞": 2033,
      "废": 2034,
      "度": 2035,
      "座": 2036,
      "庫": 2037,
      "庭": 2038,
      "庶": 2039,
      "康": 2040,
      "庸": 2041,
      "廉": 2042,
      "廊": 2043,
      "廓": 2044,
      "廖": 2045,
      "廠": 2046,
      "廳": 2047,
      "延": 2048,
      "廷": 2049,
      "建": 2050,
      "开": 2051,
      "异": 2052,
      "弃": 2053,
      "弄": 2054,
      "弊": 2055,
      "式": 2056,
      "弓": 2057,
      "引": 2058,
      "弗": 2059,
      "弘": 2060,
      "弛": 2061,
      "弟": 2062,
      "张": 2063,
      "弥": 2064,
      "弦": 2065,
      "弧": 2066,
      "弯": 2067,
      "弱": 2068,
      "張": 2069,
      "弹": 2070,
      "强": 2071,
      "归": 2072,
      "当": 2073,
      "录": 2074,
      "彝": 2075,
      "形": 2076,
      "彤": 2077,
      "彦": 2078,
      "彩": 2079,
      "彪": 2080,
      "彬": 2081,
      "彭": 2082,
      "彰": 2083,
      "影": 2084,
      "役": 2085,
      "彻": 2086,
      "彼": 2087,
      "往": 2088,
      "征": 2089,
      "径": 2090,
      "待": 2091,
      "很": 2092,
      "徊": 2093,
      "律": 2094,
      "後": 2095,
      "徐": 2096,
      "徒": 2097,
      "従": 2098,
      "得": 2099,
      "徘": 2100,
      "從": 2101,
      "御": 2102,
      "循": 2103,
      "微": 2104,
      "徴": 2105,
      "德": 2106,
      "徽": 2107,
      "心": 2108,
      "必": 2109,
      "忆": 2110,
      "忌": 2111,
      "忍": 2112,
      "志": 2113,
      "忘": 2114,
      "忙": 2115,
      "応": 2116,
      "忠": 2117,
      "忧": 2118,
      "快": 2119,
      "忱": 2120,
      "念": 2121,
      "忻": 2122,
      "忽": 2123,
      "忿": 2124,
      "怀": 2125,
      "态": 2126,
      "怂": 2127,
      "怎": 2128,
      "怒": 2129,
      "怔": 2130,
      "怕": 2131,
      "怖": 2132,
      "怜": 2133,
      "思": 2134,
      "怠": 2135,
      "急": 2136,
      "性": 2137,
      "怨": 2138,
      "怪": 2139,
      "怯": 2140,
      "总": 2141,
      "恃": 2142,
      "恋": 2143,
      "恍": 2144,
      "恐": 2145,
      "恒": 2146,
      "恕": 2147,
      "恢": 2148,
      "恤": 2149,
      "恨": 2150,
      "恩": 2151,
      "恫": 2152,
      "恬": 2153,
      "恭": 2154,
      "息": 2155,
      "恰": 2156,
      "恳": 2157,
      "恶": 2158,
      "恼": 2159,
      "恿": 2160,
      "悄": 2161,
      "悉": 2162,
      "悍": 2163,
      "悔": 2164,
      "悟": 2165,
      "悠": 2166,
      "患": 2167,
      "悦": 2168,
      "您": 2169,
      "悪": 2170,
      "悬": 2171,
      "悯": 2172,
      "悲": 2173,
      "悸": 2174,
      "悼": 2175,
      "情": 2176,
      "惊": 2177,
      "惋": 2178,
      "惑": 2179,
      "惕": 2180,
      "惜": 2181,
      "惟": 2182,
      "惠": 2183,
      "惦": 2184,
      "惧": 2185,
      "惨": 2186,
      "惩": 2187,
      "惫": 2188,
      "惭": 2189,
      "惮": 2190,
      "惯": 2191,
      "惰": 2192,
      "想": 2193,
      "惶": 2194,
      "惹": 2195,
      "惺": 2196,
      "愁": 2197,
      "愈": 2198,
      "愉": 2199,
      "意": 2200,
      "愚": 2201,
      "感": 2202,
      "愤": 2203,
      "愧": 2204,
      "愿": 2205,
      "慈": 2206,
      "態": 2207,
      "慌": 2208,
      "慎": 2209,
      "慑": 2210,
      "慕": 2211,
      "慢": 2212,
      "慧": 2213,
      "慨": 2214,
      "慰": 2215,
      "慷": 2216,
      "憋": 2217,
      "憎": 2218,
      "憨": 2219,
      "憾": 2220,
      "懂": 2221,
      "懈": 2222,
      "懊": 2223,
      "懒": 2224,
      "懦": 2225,
      "戈": 2226,
      "戊": 2227,
      "戌": 2228,
      "戍": 2229,
      "戎": 2230,
      "戏": 2231,
      "成": 2232,
      "我": 2233,
      "戒": 2234,
      "或": 2235,
      "战": 2236,
      "戚": 2237,
      "截": 2238,
      "戮": 2239,
      "戳": 2240,
      "戴": 2241,
      "户": 2242,
      "戻": 2243,
      "房": 2244,
      "所": 2245,
      "扁": 2246,
      "扇": 2247,
      "手": 2248,
      "才": 2249,
      "扎": 2250,
      "扑": 2251,
      "扒": 2252,
      "打": 2253,
      "扔": 2254,
      "托": 2255,
      "扛": 2256,
      "扣": 2257,
      "扦": 2258,
      "执": 2259,
      "扩": 2260,
      "扫": 2261,
      "扬": 2262,
      "扭": 2263,
      "扮": 2264,
      "扯": 2265,
      "扰": 2266,
      "扱": 2267,
      "扳": 2268,
      "扶": 2269,
      "批": 2270,
      "扼": 2271,
      "找": 2272,
      "承": 2273,
      "技": 2274,
      "抄": 2275,
      "抉": 2276,
      "把": 2277,
      "抑": 2278,
      "抒": 2279,
      "抓": 2280,
      "投": 2281,
      "抖": 2282,
      "抗": 2283,
      "折": 2284,
      "抚": 2285,
      "抛": 2286,
      "抠": 2287,
      "抡": 2288,
      "抢": 2289,
      "护": 2290,
      "报": 2291,
      "抨": 2292,
      "披": 2293,
      "抬": 2294,
      "抱": 2295,
      "抵": 2296,
      "抹": 2297,
      "押": 2298,
      "抽": 2299,
      "抿": 2300,
      "拂": 2301,
      "拄": 2302,
      "担": 2303,
      "拆": 2304,
      "拇": 2305,
      "拈": 2306,
      "拉": 2307,
      "拌": 2308,
      "拍": 2309,
      "拎": 2310,
      "拐": 2311,
      "拒": 2312,
      "拓": 2313,
      "拔": 2314,
      "拖": 2315,
      "拘": 2316,
      "拙": 2317,
      "招": 2318,
      "拜": 2319,
      "拟": 2320,
      "拡": 2321,
      "拢": 2322,
      "拣": 2323,
      "拥": 2324,
      "拦": 2325,
      "拧": 2326,
      "拨": 2327,
      "择": 2328,
      "括": 2329,
      "拭": 2330,
      "拯": 2331,
      "拱": 2332,
      "拳": 2333,
      "拴": 2334,
      "拷": 2335,
      "拼": 2336,
      "拽": 2337,
      "拾": 2338,
      "拿": 2339,
      "持": 2340,
      "挂": 2341,
      "指": 2342,
      "按": 2343,
      "挎": 2344,
      "挑": 2345,
      "挖": 2346,
      "挚": 2347,
      "挛": 2348,
      "挝": 2349,
      "挞": 2350,
      "挟": 2351,
      "挠": 2352,
      "挡": 2353,
      "挣": 2354,
      "挤": 2355,
      "挥": 2356,
      "挨": 2357,
      "挪": 2358,
      "挫": 2359,
      "振": 2360,
      "挺": 2361,
      "挽": 2362,
      "捂": 2363,
      "捅": 2364,
      "捆": 2365,
      "捉": 2366,
      "捌": 2367,
      "捍": 2368,
      "捎": 2369,
      "捏": 2370,
      "捐": 2371,
      "捕": 2372,
      "捞": 2373,
      "损": 2374,
      "捡": 2375,
      "换": 2376,
      "捣": 2377,
      "捧": 2378,
      "捨": 2379,
      "据": 2380,
      "捶": 2381,
      "捷": 2382,
      "捻": 2383,
      "掀": 2384,
      "掂": 2385,
      "掇": 2386,
      "授": 2387,
      "掉": 2388,
      "掌": 2389,
      "掏": 2390,
      "掐": 2391,
      "排": 2392,
      "掖": 2393,
      "掘": 2394,
      "掛": 2395,
      "掠": 2396,
      "探": 2397,
      "掣": 2398,
      "接": 2399,
      "控": 2400,
      "推": 2401,
      "掩": 2402,
      "措": 2403,
      "掳": 2404,
      "掷": 2405,
      "掸": 2406,
      "掺": 2407,
      "揉": 2408,
      "揍": 2409,
      "描": 2410,
      "提": 2411,
      "插": 2412,
      "揖": 2413,
      "換": 2414,
      "握": 2415,
      "揣": 2416,
      "揩": 2417,
      "揪": 2418,
      "揭": 2419,
      "援": 2420,
      "揽": 2421,
      "搀": 2422,
      "搁": 2423,
      "搂": 2424,
      "搅": 2425,
      "損": 2426,
      "搏": 2427,
      "搐": 2428,
      "搓": 2429,
      "搔": 2430,
      "搜": 2431,
      "搞": 2432,
      "搪": 2433,
      "搬": 2434,
      "搭": 2435,
      "携": 2436,
      "搽": 2437,
      "摄": 2438,
      "摆": 2439,
      "摇": 2440,
      "摈": 2441,
      "摊": 2442,
      "摔": 2443,
      "摘": 2444,
      "摧": 2445,
      "摩": 2446,
      "摸": 2447,
      "摹": 2448,
      "撂": 2449,
      "撅": 2450,
      "撇": 2451,
      "撑": 2452,
      "撒": 2453,
      "撕": 2454,
      "撞": 2455,
      "撤": 2456,
      "撩": 2457,
      "撬": 2458,
      "播": 2459,
      "撮": 2460,
      "撰": 2461,
      "撵": 2462,
      "撼": 2463,
      "擂": 2464,
      "擅": 2465,
      "擇": 2466,
      "操": 2467,
      "擎": 2468,
      "擒": 2469,
      "擞": 2470,
      "擦": 2471,
      "攀": 2472,
      "攒": 2473,
      "攘": 2474,
      "攫": 2475,
      "支": 2476,
      "收": 2477,
      "改": 2478,
      "攻": 2479,
      "放": 2480,
      "政": 2481,
      "故": 2482,
      "效": 2483,
      "敌": 2484,
      "敏": 2485,
      "救": 2486,
      "敖": 2487,
      "敗": 2488,
      "教": 2489,
      "敛": 2490,
      "敝": 2491,
      "敞": 2492,
      "敢": 2493,
      "散": 2494,
      "敦": 2495,
      "敬": 2496,
      "数": 2497,
      "敲": 2498,
      "整": 2499,
      "敷": 2500,
      "數": 2501,
      "文": 2502,
      "斋": 2503,
      "斌": 2504,
      "斑": 2505,
      "斗": 2506,
      "料": 2507,
      "斜": 2508,
      "斟": 2509,
      "斡": 2510,
      "斤": 2511,
      "斥": 2512,
      "斧": 2513,
      "斩": 2514,
      "断": 2515,
      "斯": 2516,
      "新": 2517,
      "方": 2518,
      "於": 2519,
      "施": 2520,
      "旁": 2521,
      "旅": 2522,
      "旋": 2523,
      "族": 2524,
      "旗": 2525,
      "无": 2526,
      "既": 2527,
      "日": 2528,
      "旦": 2529,
      "旧": 2530,
      "旨": 2531,
      "早": 2532,
      "旬": 2533,
      "旭": 2534,
      "旱": 2535,
      "时": 2536,
      "旷": 2537,
      "旺": 2538,
      "昂": 2539,
      "昆": 2540,
      "昇": 2541,
      "昌": 2542,
      "明": 2543,
      "昏": 2544,
      "易": 2545,
      "昔": 2546,
      "星": 2547,
      "映": 2548,
      "春": 2549,
      "昧": 2550,
      "昨": 2551,
      "昭": 2552,
      "是": 2553,
      "昼": 2554,
      "显": 2555,
      "時": 2556,
      "晃": 2557,
      "晋": 2558,
      "晌": 2559,
      "晒": 2560,
      "晓": 2561,
      "晕": 2562,
      "晚": 2563,
      "晤": 2564,
      "晦": 2565,
      "晨": 2566,
      "普": 2567,
      "景": 2568,
      "晰": 2569,
      "晴": 2570,
      "晶": 2571,
      "智": 2572,
      "晾": 2573,
      "暂": 2574,
      "暇": 2575,
      "暑": 2576,
      "暖": 2577,
      "暗": 2578,
      "暮": 2579,
      "暴": 2580,
      "曙": 2581,
      "曜": 2582,
      "曝": 2583,
      "曰": 2584,
      "曲": 2585,
      "曳": 2586,
      "更": 2587,
      "書": 2588,
      "曹": 2589,
      "曼": 2590,
      "曾": 2591,
      "替": 2592,
      "最": 2593,
      "月": 2594,
      "有": 2595,
      "朋": 2596,
      "服": 2597,
      "朔": 2598,
      "朗": 2599,
      "望": 2600,
      "朝": 2601,
      "期": 2602,
      "木": 2603,
      "未": 2604,
      "末": 2605,
      "本": 2606,
      "札": 2607,
      "术": 2608,
      "朱": 2609,
      "朴": 2610,
      "朵": 2611,
      "机": 2612,
      "朽": 2613,
      "杀": 2614,
      "杂": 2615,
      "权": 2616,
      "杆": 2617,
      "杉": 2618,
      "李": 2619,
      "杏": 2620,
      "材": 2621,
      "村": 2622,
      "杖": 2623,
      "杜": 2624,
      "束": 2625,
      "杠": 2626,
      "条": 2627,
      "来": 2628,
      "杨": 2629,
      "杭": 2630,
      "杯": 2631,
      "杰": 2632,
      "松": 2633,
      "板": 2634,
      "极": 2635,
      "构": 2636,
      "枉": 2637,
      "析": 2638,
      "枕": 2639,
      "林": 2640,
      "枚": 2641,
      "果": 2642,
      "枝": 2643,
      "枢": 2644,
      "枣": 2645,
      "枪": 2646,
      "枫": 2647,
      "枯": 2648,
      "架": 2649,
      "枷": 2650,
      "柄": 2651,
      "柏": 2652,
      "某": 2653,
      "柑": 2654,
      "柒": 2655,
      "染": 2656,
      "柔": 2657,
      "柜": 2658,
      "柞": 2659,
      "柠": 2660,
      "查": 2661,
      "柬": 2662,
      "柯": 2663,
      "柱": 2664,
      "柳": 2665,
      "柴": 2666,
      "柿": 2667,
      "栅": 2668,
      "标": 2669,
      "栈": 2670,
      "栋": 2671,
      "栏": 2672,
      "树": 2673,
      "栓": 2674,
      "栖": 2675,
      "栗": 2676,
      "校": 2677,
      "株": 2678,
      "样": 2679,
      "核": 2680,
      "根": 2681,
      "格": 2682,
      "栽": 2683,
      "桂": 2684,
      "桃": 2685,
      "桅": 2686,
      "框": 2687,
      "案": 2688,
      "桌": 2689,
      "桐": 2690,
      "桑": 2691,
      "桓": 2692,
      "桔": 2693,
      "档": 2694,
      "桥": 2695,
      "桨": 2696,
      "桩": 2697,
      "桶": 2698,
      "梁": 2699,
      "梅": 2700,
      "梆": 2701,
      "梗": 2702,
      "梢": 2703,
      "梦": 2704,
      "梧": 2705,
      "梨": 2706,
      "梭": 2707,
      "梯": 2708,
      "械": 2709,
      "梳": 2710,
      "检": 2711,
      "棉": 2712,
      "棋": 2713,
      "棍": 2714,
      "棒": 2715,
      "棕": 2716,
      "棘": 2717,
      "棚": 2718,
      "棠": 2719,
      "森": 2720,
      "棰": 2721,
      "棱": 2722,
      "棵": 2723,
      "棺": 2724,
      "椅": 2725,
      "植": 2726,
      "椎": 2727,
      "椒": 2728,
      "検": 2729,
      "椭": 2730,
      "椰": 2731,
      "椽": 2732,
      "椿": 2733,
      "楔": 2734,
      "楚": 2735,
      "楞": 2736,
      "業": 2737,
      "極": 2738,
      "楷": 2739,
      "楼": 2740,
      "概": 2741,
      "榆": 2742,
      "榔": 2743,
      "榜": 2744,
      "榨": 2745,
      "榴": 2746,
      "榷": 2747,
      "構": 2748,
      "槐": 2749,
      "様": 2750,
      "槛": 2751,
      "槽": 2752,
      "樊": 2753,
      "樓": 2754,
      "標": 2755,
      "樟": 2756,
      "模": 2757,
      "樣": 2758,
      "横": 2759,
      "樱": 2760,
      "橇": 2761,
      "橙": 2762,
      "機": 2763,
      "橡": 2764,
      "橱": 2765,
      "檀": 2766,
      "檄": 2767,
      "檬": 2768,
      "檯": 2769,
      "欠": 2770,
      "次": 2771,
      "欢": 2772,
      "欣": 2773,
      "欧": 2774,
      "欲": 2775,
      "欺": 2776,
      "款": 2777,
      "歇": 2778,
      "歉": 2779,
      "歌": 2780,
      "止": 2781,
      "正": 2782,
      "此": 2783,
      "步": 2784,
      "武": 2785,
      "歧": 2786,
      "歪": 2787,
      "歸": 2788,
      "歹": 2789,
      "死": 2790,
      "歼": 2791,
      "殃": 2792,
      "殆": 2793,
      "殉": 2794,
      "殊": 2795,
      "残": 2796,
      "殖": 2797,
      "殴": 2798,
      "段": 2799,
      "殷": 2800,
      "殿": 2801,
      "毁": 2802,
      "毅": 2803,
      "毋": 2804,
      "母": 2805,
      "毎": 2806,
      "每": 2807,
      "毒": 2808,
      "比": 2809,
      "毕": 2810,
      "毖": 2811,
      "毗": 2812,
      "毙": 2813,
      "毛": 2814,
      "毡": 2815,
      "毫": 2816,
      "毯": 2817,
      "氏": 2818,
      "民": 2819,
      "氓": 2820,
      "气": 2821,
      "氖": 2822,
      "氛": 2823,
      "氟": 2824,
      "氢": 2825,
      "氦": 2826,
      "氧": 2827,
      "氨": 2828,
      "氮": 2829,
      "氯": 2830,
      "氰": 2831,
      "水": 2832,
      "永": 2833,
      "汀": 2834,
      "汁": 2835,
      "求": 2836,
      "汇": 2837,
      "汉": 2838,
      "汎": 2839,
      "汐": 2840,
      "汕": 2841,
      "汗": 2842,
      "汛": 2843,
      "汝": 2844,
      "汞": 2845,
      "江": 2846,
      "池": 2847,
      "污": 2848,
      "汤": 2849,
      "汪": 2850,
      "汰": 2851,
      "汲": 2852,
      "汹": 2853,
      "決": 2854,
      "汽": 2855,
      "汾": 2856,
      "沁": 2857,
      "沂": 2858,
      "沃": 2859,
      "沈": 2860,
      "沉": 2861,
      "沏": 2862,
      "沙": 2863,
      "沛": 2864,
      "沟": 2865,
      "没": 2866,
      "沤": 2867,
      "沥": 2868,
      "沦": 2869,
      "沧": 2870,
      "沪": 2871,
      "沫": 2872,
      "沮": 2873,
      "河": 2874,
      "沸": 2875,
      "油": 2876,
      "治": 2877,
      "沼": 2878,
      "沽": 2879,
      "沾": 2880,
      "沿": 2881,
      "況": 2882,
      "泄": 2883,
      "泅": 2884,
      "泉": 2885,
      "泊": 2886,
      "泌": 2887,
      "法": 2888,
      "泛": 2889,
      "泞": 2890,
      "泡": 2891,
      "波": 2892,
      "泣": 2893,
      "泥": 2894,
      "注": 2895,
      "泪": 2896,
      "泰": 2897,
      "泳": 2898,
      "泵": 2899,
      "泻": 2900,
      "泼": 2901,
      "泽": 2902,
      "洁": 2903,
      "洋": 2904,
      "洒": 2905,
      "洗": 2906,
      "洛": 2907,
      "洞": 2908,
      "津": 2909,
      "洪": 2910,
      "洱": 2911,
      "洲": 2912,
      "活": 2913,
      "洼": 2914,
      "洽": 2915,
      "派": 2916,
      "流": 2917,
      "浅": 2918,
      "浆": 2919,
      "浇": 2920,
      "浊": 2921,
      "测": 2922,
      "济": 2923,
      "浑": 2924,
      "浓": 2925,
      "浙": 2926,
      "浚": 2927,
      "浦": 2928,
      "浩": 2929,
      "浪": 2930,
      "浮": 2931,
      "浴": 2932,
      "海": 2933,
      "浸": 2934,
      "涂": 2935,
      "涅": 2936,
      "消": 2937,
      "涉": 2938,
      "涌": 2939,
      "涎": 2940,
      "涕": 2941,
      "涛": 2942,
      "涝": 2943,
      "涟": 2944,
      "涡": 2945,
      "涣": 2946,
      "涤": 2947,
      "润": 2948,
      "涧": 2949,
      "涨": 2950,
      "涩": 2951,
      "涪": 2952,
      "涯": 2953,
      "液": 2954,
      "涵": 2955,
      "涸": 2956,
      "淀": 2957,
      "淄": 2958,
      "淆": 2959,
      "淋": 2960,
      "淌": 2961,
      "淑": 2962,
      "淖": 2963,
      "淘": 2964,
      "淡": 2965,
      "淤": 2966,
      "淫": 2967,
      "淬": 2968,
      "淮": 2969,
      "深": 2970,
      "淳": 2971,
      "混": 2972,
      "淹": 2973,
      "添": 2974,
      "清": 2975,
      "済": 2976,
      "渊": 2977,
      "渍": 2978,
      "渐": 2979,
      "渔": 2980,
      "渗": 2981,
      "減": 2982,
      "渝": 2983,
      "渠": 2984,
      "渡": 2985,
      "渣": 2986,
      "渤": 2987,
      "温": 2988,
      "測": 2989,
      "渭": 2990,
      "港": 2991,
      "渴": 2992,
      "游": 2993,
      "渺": 2994,
      "湃": 2995,
      "湍": 2996,
      "湖": 2997,
      "湘": 2998,
      "湛": 2999,
      "湾": 3000,
      "湿": 3001,
      "溃": 3002,
      "溅": 3003,
      "溉": 3004,
      "源": 3005,
      "準": 3006,
      "溜": 3007,
      "溢": 3008,
      "溪": 3009,
      "溯": 3010,
      "溶": 3011,
      "溺": 3012,
      "滁": 3013,
      "滇": 3014,
      "滋": 3015,
      "滑": 3016,
      "滓": 3017,
      "滔": 3018,
      "滚": 3019,
      "滞": 3020,
      "满": 3021,
      "滤": 3022,
      "滥": 3023,
      "滦": 3024,
      "滨": 3025,
      "滩": 3026,
      "滴": 3027,
      "滿": 3028,
      "漂": 3029,
      "漆": 3030,
      "漏": 3031,
      "漓": 3032,
      "演": 3033,
      "漠": 3034,
      "漫": 3035,
      "漱": 3036,
      "漳": 3037,
      "漾": 3038,
      "潍": 3039,
      "潘": 3040,
      "潜": 3041,
      "潞": 3042,
      "潦": 3043,
      "潭": 3044,
      "潮": 3045,
      "潰": 3046,
      "澄": 3047,
      "澈": 3048,
      "澎": 3049,
      "澜": 3050,
      "澡": 3051,
      "澳": 3052,
      "激": 3053,
      "濃": 3054,
      "濒": 3055,
      "瀑": 3056,
      "瀹": 3057,
      "灌": 3058,
      "火": 3059,
      "灭": 3060,
      "灯": 3061,
      "灰": 3062,
      "灵": 3063,
      "灶": 3064,
      "灸": 3065,
      "灼": 3066,
      "灾": 3067,
      "灿": 3068,
      "炉": 3069,
      "炊": 3070,
      "炎": 3071,
      "炒": 3072,
      "炔": 3073,
      "炕": 3074,
      "炙": 3075,
      "炬": 3076,
      "炭": 3077,
      "炮": 3078,
      "炯": 3079,
      "炳": 3080,
      "炸": 3081,
      "点": 3082,
      "為": 3083,
      "炼": 3084,
      "炽": 3085,
      "烁": 3086,
      "烂": 3087,
      "烃": 3088,
      "烈": 3089,
      "烘": 3090,
      "烙": 3091,
      "烛": 3092,
      "烟": 3093,
      "烤": 3094,
      "烦": 3095,
      "烧": 3096,
      "烩": 3097,
      "烫": 3098,
      "烬": 3099,
      "热": 3100,
      "烯": 3101,
      "烷": 3102,
      "烹": 3103,
      "烽": 3104,
      "焉": 3105,
      "焊": 3106,
      "焕": 3107,
      "焙": 3108,
      "焚": 3109,
      "無": 3110,
      "焦": 3111,
      "焰": 3112,
      "然": 3113,
      "煌": 3114,
      "煎": 3115,
      "煞": 3116,
      "煤": 3117,
      "照": 3118,
      "煮": 3119,
      "煽": 3120,
      "熄": 3121,
      "熊": 3122,
      "熏": 3123,
      "熔": 3124,
      "熙": 3125,
      "熟": 3126,
      "熬": 3127,
      "燃": 3128,
      "燎": 3129,
      "燕": 3130,
      "燥": 3131,
      "爆": 3132,
      "爪": 3133,
      "爬": 3134,
      "爱": 3135,
      "爵": 3136,
      "父": 3137,
      "爷": 3138,
      "爸": 3139,
      "爹": 3140,
      "爽": 3141,
      "片": 3142,
      "版": 3143,
      "牌": 3144,
      "牙": 3145,
      "牛": 3146,
      "牟": 3147,
      "牡": 3148,
      "牢": 3149,
      "牧": 3150,
      "物": 3151,
      "牲": 3152,
      "牵": 3153,
      "特": 3154,
      "牺": 3155,
      "犀": 3156,
      "犁": 3157,
      "犊": 3158,
      "犬": 3159,
      "犯": 3160,
      "状": 3161,
      "犹": 3162,
      "狂": 3163,
      "狄": 3164,
      "狈": 3165,
      "狐": 3166,
      "狗": 3167,
      "狙": 3168,
      "狞": 3169,
      "狠": 3170,
      "狡": 3171,
      "独": 3172,
      "狭": 3173,
      "狮": 3174,
      "狰": 3175,
      "狱": 3176,
      "狸": 3177,
      "狼": 3178,
      "猎": 3179,
      "猖": 3180,
      "猛": 3181,
      "猜": 3182,
      "猩": 3183,
      "猪": 3184,
      "猫": 3185,
      "献": 3186,
      "猴": 3187,
      "猾": 3188,
      "猿": 3189,
      "獭": 3190,
      "獲": 3191,
      "玄": 3192,
      "率": 3193,
      "玉": 3194,
      "王": 3195,
      "玖": 3196,
      "玛": 3197,
      "玩": 3198,
      "玫": 3199,
      "环": 3200,
      "现": 3201,
      "玲": 3202,
      "玻": 3203,
      "珊": 3204,
      "珍": 3205,
      "珐": 3206,
      "珠": 3207,
      "班": 3208,
      "現": 3209,
      "球": 3210,
      "琅": 3211,
      "理": 3212,
      "琉": 3213,
      "琐": 3214,
      "琢": 3215,
      "琳": 3216,
      "琴": 3217,
      "琵": 3218,
      "琶": 3219,
      "琼": 3220,
      "瑚": 3221,
      "瑞": 3222,
      "瑟": 3223,
      "瑰": 3224,
      "瑶": 3225,
      "璀": 3226,
      "璃": 3227,
      "璨": 3228,
      "瓜": 3229,
      "瓢": 3230,
      "瓣": 3231,
      "瓤": 3232,
      "瓦": 3233,
      "瓮": 3234,
      "瓶": 3235,
      "瓷": 3236,
      "甄": 3237,
      "甘": 3238,
      "甚": 3239,
      "甜": 3240,
      "生": 3241,
      "甥": 3242,
      "用": 3243,
      "甩": 3244,
      "甫": 3245,
      "甭": 3246,
      "田": 3247,
      "由": 3248,
      "甲": 3249,
      "申": 3250,
      "电": 3251,
      "男": 3252,
      "甸": 3253,
      "画": 3254,
      "畅": 3255,
      "界": 3256,
      "畏": 3257,
      "畔": 3258,
      "留": 3259,
      "畜": 3260,
      "略": 3261,
      "畦": 3262,
      "番": 3263,
      "異": 3264,
      "畳": 3265,
      "畴": 3266,
      "畸": 3267,
      "疆": 3268,
      "疏": 3269,
      "疑": 3270,
      "疗": 3271,
      "疙": 3272,
      "疚": 3273,
      "疟": 3274,
      "疡": 3275,
      "疤": 3276,
      "疥": 3277,
      "疫": 3278,
      "疮": 3279,
      "疯": 3280,
      "疲": 3281,
      "疵": 3282,
      "疹": 3283,
      "疼": 3284,
      "疽": 3285,
      "疾": 3286,
      "病": 3287,
      "症": 3288,
      "痈": 3289,
      "痉": 3290,
      "痊": 3291,
      "痒": 3292,
      "痔": 3293,
      "痕": 3294,
      "痘": 3295,
      "痛": 3296,
      "痞": 3297,
      "痢": 3298,
      "痪": 3299,
      "痰": 3300,
      "痴": 3301,
      "痹": 3302,
      "瘁": 3303,
      "瘟": 3304,
      "瘤": 3305,
      "瘦": 3306,
      "瘩": 3307,
      "瘪": 3308,
      "瘫": 3309,
      "瘴": 3310,
      "瘸": 3311,
      "療": 3312,
      "癌": 3313,
      "癣": 3314,
      "癸": 3315,
      "登": 3316,
      "發": 3317,
      "白": 3318,
      "百": 3319,
      "皂": 3320,
      "的": 3321,
      "皆": 3322,
      "皇": 3323,
      "皋": 3324,
      "皑": 3325,
      "皖": 3326,
      "皮": 3327,
      "皱": 3328,
      "皿": 3329,
      "盂": 3330,
      "盅": 3331,
      "盆": 3332,
      "盈": 3333,
      "益": 3334,
      "盎": 3335,
      "盏": 3336,
      "盐": 3337,
      "监": 3338,
      "盒": 3339,
      "盔": 3340,
      "盖": 3341,
      "盗": 3342,
      "盘": 3343,
      "盛": 3344,
      "盟": 3345,
      "目": 3346,
      "盯": 3347,
      "盲": 3348,
      "直": 3349,
      "相": 3350,
      "盼": 3351,
      "盾": 3352,
      "省": 3353,
      "眉": 3354,
      "看": 3355,
      "真": 3356,
      "眠": 3357,
      "眨": 3358,
      "眩": 3359,
      "眯": 3360,
      "眶": 3361,
      "眷": 3362,
      "眺": 3363,
      "眼": 3364,
      "着": 3365,
      "睁": 3366,
      "睛": 3367,
      "睡": 3368,
      "督": 3369,
      "睦": 3370,
      "睫": 3371,
      "睬": 3372,
      "睹": 3373,
      "瞄": 3374,
      "瞅": 3375,
      "瞎": 3376,
      "瞒": 3377,
      "瞥": 3378,
      "瞧": 3379,
      "瞩": 3380,
      "瞪": 3381,
      "瞬": 3382,
      "瞳": 3383,
      "瞻": 3384,
      "矗": 3385,
      "矛": 3386,
      "矢": 3387,
      "矣": 3388,
      "知": 3389,
      "矩": 3390,
      "矫": 3391,
      "短": 3392,
      "矮": 3393,
      "石": 3394,
      "矽": 3395,
      "矾": 3396,
      "矿": 3397,
      "码": 3398,
      "砂": 3399,
      "砌": 3400,
      "砍": 3401,
      "砒": 3402,
      "研": 3403,
      "砖": 3404,
      "砚": 3405,
      "砧": 3406,
      "砰": 3407,
      "破": 3408,
      "砷": 3409,
      "砸": 3410,
      "砾": 3411,
      "础": 3412,
      "硅": 3413,
      "硒": 3414,
      "硕": 3415,
      "硝": 3416,
      "硫": 3417,
      "硬": 3418,
      "确": 3419,
      "硷": 3420,
      "硼": 3421,
      "碉": 3422,
      "碌": 3423,
      "碍": 3424,
      "碎": 3425,
      "碑": 3426,
      "碗": 3427,
      "碘": 3428,
      "碟": 3429,
      "碧": 3430,
      "碰": 3431,
      "碱": 3432,
      "碳": 3433,
      "碴": 3434,
      "確": 3435,
      "碾": 3436,
      "磁": 3437,
      "磅": 3438,
      "磊": 3439,
      "磋": 3440,
      "磐": 3441,
      "磕": 3442,
      "磨": 3443,
      "磷": 3444,
      "磺": 3445,
      "礁": 3446,
      "示": 3447,
      "礼": 3448,
      "社": 3449,
      "祁": 3450,
      "祈": 3451,
      "祉": 3452,
      "祖": 3453,
      "祝": 3454,
      "神": 3455,
      "祟": 3456,
      "祥": 3457,
      "票": 3458,
      "祭": 3459,
      "祴": 3460,
      "祷": 3461,
      "祸": 3462,
      "禁": 3463,
      "禄": 3464,
      "福": 3465,
      "禹": 3466,
      "离": 3467,
      "禽": 3468,
      "禾": 3469,
      "秀": 3470,
      "私": 3471,
      "秃": 3472,
      "秆": 3473,
      "秉": 3474,
      "秋": 3475,
      "种": 3476,
      "科": 3477,
      "秒": 3478,
      "秘": 3479,
      "租": 3480,
      "秤": 3481,
      "秦": 3482,
      "秧": 3483,
      "秩": 3484,
      "积": 3485,
      "称": 3486,
      "秸": 3487,
      "移": 3488,
      "秽": 3489,
      "稀": 3490,
      "程": 3491,
      "稍": 3492,
      "税": 3493,
      "稗": 3494,
      "稚": 3495,
      "稠": 3496,
      "種": 3497,
      "稳": 3498,
      "稻": 3499,
      "稼": 3500,
      "稽": 3501,
      "稿": 3502,
      "穆": 3503,
      "積": 3504,
      "穗": 3505,
      "穴": 3506,
      "究": 3507,
      "穷": 3508,
      "空": 3509,
      "穿": 3510,
      "突": 3511,
      "窃": 3512,
      "窄": 3513,
      "窍": 3514,
      "窑": 3515,
      "窒": 3516,
      "窖": 3517,
      "窗": 3518,
      "窘": 3519,
      "窜": 3520,
      "窝": 3521,
      "窟": 3522,
      "窥": 3523,
      "窿": 3524,
      "立": 3525,
      "竖": 3526,
      "站": 3527,
      "竞": 3528,
      "竟": 3529,
      "章": 3530,
      "竣": 3531,
      "童": 3532,
      "竭": 3533,
      "端": 3534,
      "竹": 3535,
      "竿": 3536,
      "笆": 3537,
      "笋": 3538,
      "笑": 3539,
      "笔": 3540,
      "笛": 3541,
      "符": 3542,
      "笨": 3543,
      "第": 3544,
      "笺": 3545,
      "笼": 3546,
      "筆": 3547,
      "等": 3548,
      "筋": 3549,
      "筏": 3550,
      "筐": 3551,
      "筑": 3552,
      "筒": 3553,
      "答": 3554,
      "策": 3555,
      "筛": 3556,
      "筷": 3557,
      "筹": 3558,
      "签": 3559,
      "简": 3560,
      "箍": 3561,
      "箔": 3562,
      "箕": 3563,
      "算": 3564,
      "管": 3565,
      "箩": 3566,
      "箭": 3567,
      "箱": 3568,
      "範": 3569,
      "篆": 3570,
      "篇": 3571,
      "篓": 3572,
      "篙": 3573,
      "篡": 3574,
      "篮": 3575,
      "篱": 3576,
      "篷": 3577,
      "簇": 3578,
      "簧": 3579,
      "簸": 3580,
      "簿": 3581,
      "籍": 3582,
      "米": 3583,
      "类": 3584,
      "籽": 3585,
      "粉": 3586,
      "粒": 3587,
      "粕": 3588,
      "粗": 3589,
      "粘": 3590,
      "粟": 3591,
      "粤": 3592,
      "粥": 3593,
      "粪": 3594,
      "粮": 3595,
      "粱": 3596,
      "粳": 3597,
      "粹": 3598,
      "精": 3599,
      "糊": 3600,
      "糕": 3601,
      "糖": 3602,
      "糙": 3603,
      "糜": 3604,
      "糟": 3605,
      "糠": 3606,
      "糯": 3607,
      "系": 3608,
      "紊": 3609,
      "納": 3610,
      "素": 3611,
      "索": 3612,
      "紧": 3613,
      "紫": 3614,
      "累": 3615,
      "細": 3616,
      "終": 3617,
      "組": 3618,
      "結": 3619,
      "絮": 3620,
      "統": 3621,
      "絶": 3622,
      "經": 3623,
      "続": 3624,
      "総": 3625,
      "線": 3626,
      "緯": 3627,
      "練": 3628,
      "緻": 3629,
      "縦": 3630,
      "總": 3631,
      "繁": 3632,
      "纂": 3633,
      "纠": 3634,
      "红": 3635,
      "纤": 3636,
      "约": 3637,
      "级": 3638,
      "纪": 3639,
      "纫": 3640,
      "纬": 3641,
      "纯": 3642,
      "纱": 3643,
      "纲": 3644,
      "纳": 3645,
      "纵": 3646,
      "纶": 3647,
      "纷": 3648,
      "纸": 3649,
      "纹": 3650,
      "纺": 3651,
      "纽": 3652,
      "纾": 3653,
      "线": 3654,
      "练": 3655,
      "组": 3656,
      "绅": 3657,
      "细": 3658,
      "织": 3659,
      "终": 3660,
      "绊": 3661,
      "绍": 3662,
      "绎": 3663,
      "经": 3664,
      "绑": 3665,
      "绒": 3666,
      "结": 3667,
      "绕": 3668,
      "绘": 3669,
      "给": 3670,
      "绚": 3671,
      "络": 3672,
      "绝": 3673,
      "绞": 3674,
      "统": 3675,
      "绢": 3676,
      "绣": 3677,
      "绥": 3678,
      "绦": 3679,
      "继": 3680,
      "绩": 3681,
      "绪": 3682,
      "续": 3683,
      "绰": 3684,
      "绳": 3685,
      "维": 3686,
      "绵": 3687,
      "绷": 3688,
      "绸": 3689,
      "综": 3690,
      "绽": 3691,
      "绿": 3692,
      "缀": 3693,
      "缄": 3694,
      "缅": 3695,
      "缆": 3696,
      "缉": 3697,
      "缎": 3698,
      "缓": 3699,
      "缔": 3700,
      "缕": 3701,
      "编": 3702,
      "缘": 3703,
      "缚": 3704,
      "缝": 3705,
      "缠": 3706,
      "缨": 3707,
      "缩": 3708,
      "缮": 3709,
      "缴": 3710,
      "缸": 3711,
      "缺": 3712,
      "罐": 3713,
      "网": 3714,
      "罕": 3715,
      "罗": 3716,
      "罚": 3717,
      "罢": 3718,
      "罩": 3719,
      "罪": 3720,
      "置": 3721,
      "署": 3722,
      "羅": 3723,
      "羊": 3724,
      "羌": 3725,
      "美": 3726,
      "羔": 3727,
      "羚": 3728,
      "羞": 3729,
      "羡": 3730,
      "群": 3731,
      "義": 3732,
      "羹": 3733,
      "羽": 3734,
      "翁": 3735,
      "翅": 3736,
      "翌": 3737,
      "習": 3738,
      "翔": 3739,
      "翘": 3740,
      "翟": 3741,
      "翠": 3742,
      "翰": 3743,
      "翱": 3744,
      "翻": 3745,
      "翼": 3746,
      "耀": 3747,
      "老": 3748,
      "考": 3749,
      "者": 3750,
      "而": 3751,
      "耍": 3752,
      "耐": 3753,
      "耕": 3754,
      "耗": 3755,
      "耘": 3756,
      "耙": 3757,
      "耪": 3758,
      "耳": 3759,
      "耶": 3760,
      "耸": 3761,
      "耻": 3762,
      "耽": 3763,
      "耿": 3764,
      "聂": 3765,
      "聊": 3766,
      "聋": 3767,
      "职": 3768,
      "联": 3769,
      "聘": 3770,
      "聚": 3771,
      "聞": 3772,
      "聪": 3773,
      "肃": 3774,
      "肄": 3775,
      "肆": 3776,
      "肇": 3777,
      "肉": 3778,
      "肋": 3779,
      "肌": 3780,
      "肖": 3781,
      "肘": 3782,
      "肚": 3783,
      "肛": 3784,
      "肝": 3785,
      "肠": 3786,
      "股": 3787,
      "肢": 3788,
      "肤": 3789,
      "肥": 3790,
      "肩": 3791,
      "肪": 3792,
      "肮": 3793,
      "肯": 3794,
      "育": 3795,
      "肺": 3796,
      "肾": 3797,
      "肿": 3798,
      "胀": 3799,
      "胁": 3800,
      "胃": 3801,
      "胆": 3802,
      "背": 3803,
      "胎": 3804,
      "胖": 3805,
      "胚": 3806,
      "胜": 3807,
      "胞": 3808,
      "胡": 3809,
      "胯": 3810,
      "胰": 3811,
      "胳": 3812,
      "胶": 3813,
      "胸": 3814,
      "胺": 3815,
      "能": 3816,
      "脂": 3817,
      "脆": 3818,
      "脉": 3819,
      "脊": 3820,
      "脏": 3821,
      "脐": 3822,
      "脑": 3823,
      "脓": 3824,
      "脖": 3825,
      "脚": 3826,
      "脯": 3827,
      "脱": 3828,
      "脸": 3829,
      "脾": 3830,
      "腆": 3831,
      "腊": 3832,
      "腋": 3833,
      "腐": 3834,
      "腑": 3835,
      "腔": 3836,
      "腕": 3837,
      "腥": 3838,
      "腮": 3839,
      "腰": 3840,
      "腹": 3841,
      "腺": 3842,
      "腻": 3843,
      "腾": 3844,
      "腿": 3845,
      "膀": 3846,
      "膊": 3847,
      "膏": 3848,
      "膘": 3849,
      "膛": 3850,
      "膜": 3851,
      "膝": 3852,
      "膨": 3853,
      "膳": 3854,
      "臀": 3855,
      "臂": 3856,
      "臃": 3857,
      "臆": 3858,
      "臣": 3859,
      "自": 3860,
      "臭": 3861,
      "至": 3862,
      "致": 3863,
      "臻": 3864,
      "臼": 3865,
      "舀": 3866,
      "舅": 3867,
      "舆": 3868,
      "與": 3869,
      "舌": 3870,
      "舍": 3871,
      "舒": 3872,
      "舔": 3873,
      "舖": 3874,
      "舜": 3875,
      "舞": 3876,
      "舟": 3877,
      "航": 3878,
      "般": 3879,
      "舰": 3880,
      "舱": 3881,
      "舵": 3882,
      "舶": 3883,
      "舷": 3884,
      "船": 3885,
      "艇": 3886,
      "艘": 3887,
      "良": 3888,
      "艰": 3889,
      "色": 3890,
      "艳": 3891,
      "艺": 3892,
      "艾": 3893,
      "节": 3894,
      "芋": 3895,
      "芍": 3896,
      "芒": 3897,
      "芜": 3898,
      "芝": 3899,
      "芥": 3900,
      "芦": 3901,
      "芬": 3902,
      "芭": 3903,
      "芯": 3904,
      "花": 3905,
      "芳": 3906,
      "芹": 3907,
      "芽": 3908,
      "苇": 3909,
      "苍": 3910,
      "苏": 3911,
      "苑": 3912,
      "苔": 3913,
      "苗": 3914,
      "苛": 3915,
      "苞": 3916,
      "苟": 3917,
      "若": 3918,
      "苦": 3919,
      "苫": 3920,
      "苯": 3921,
      "英": 3922,
      "苹": 3923,
      "茁": 3924,
      "茂": 3925,
      "范": 3926,
      "茄": 3927,
      "茅": 3928,
      "茎": 3929,
      "茧": 3930,
      "茨": 3931,
      "茫": 3932,
      "茬": 3933,
      "茵": 3934,
      "茶": 3935,
      "茸": 3936,
      "茹": 3937,
      "荆": 3938,
      "草": 3939,
      "荐": 3940,
      "荒": 3941,
      "荔": 3942,
      "荚": 3943,
      "荡": 3944,
      "荣": 3945,
      "荤": 3946,
      "荧": 3947,
      "荫": 3948,
      "药": 3949,
      "荷": 3950,
      "莆": 3951,
      "莉": 3952,
      "莎": 3953,
      "莫": 3954,
      "莱": 3955,
      "莲": 3956,
      "获": 3957,
      "莹": 3958,
      "莽": 3959,
      "菇": 3960,
      "菊": 3961,
      "菌": 3962,
      "菏": 3963,
      "菜": 3964,
      "菠": 3965,
      "菩": 3966,
      "菱": 3967,
      "菲": 3968,
      "萄": 3969,
      "萌": 3970,
      "萍": 3971,
      "萎": 3972,
      "萝": 3973,
      "萤": 3974,
      "营": 3975,
      "萧": 3976,
      "萨": 3977,
      "萬": 3978,
      "萼": 3979,
      "落": 3980,
      "著": 3981,
      "葛": 3982,
      "葡": 3983,
      "董": 3984,
      "葫": 3985,
      "葬": 3986,
      "葱": 3987,
      "葵": 3988,
      "蒂": 3989,
      "蒋": 3990,
      "蒙": 3991,
      "蒜": 3992,
      "蒲": 3993,
      "蒸": 3994,
      "蓄": 3995,
      "蓉": 3996,
      "蓑": 3997,
      "蓖": 3998,
      "蓝": 3999,
      "蓟": 4000,
      "蓬": 4001,
      "蔑": 4002,
      "蔓": 4003,
      "蔗": 4004,
      "蔚": 4005,
      "蔡": 4006,
      "蔫": 4007,
      "蔬": 4008,
      "蔷": 4009,
      "蔼": 4010,
      "蔽": 4011,
      "蕉": 4012,
      "蕊": 4013,
      "蕴": 4014,
      "蕾": 4015,
      "薄": 4016,
      "薛": 4017,
      "薪": 4018,
      "薯": 4019,
      "藉": 4020,
      "藏": 4021,
      "藐": 4022,
      "藕": 4023,
      "藤": 4024,
      "藩": 4025,
      "藻": 4026,
      "蘑": 4027,
      "蘸": 4028,
      "虎": 4029,
      "虏": 4030,
      "虐": 4031,
      "虑": 4032,
      "處": 4033,
      "虚": 4034,
      "虞": 4035,
      "虫": 4036,
      "虱": 4037,
      "虹": 4038,
      "虽": 4039,
      "虾": 4040,
      "蚀": 4041,
      "蚁": 4042,
      "蚂": 4043,
      "蚊": 4044,
      "蚌": 4045,
      "蚕": 4046,
      "蚜": 4047,
      "蚤": 4048,
      "蛀": 4049,
      "蛆": 4050,
      "蛇": 4051,
      "蛊": 4052,
      "蛋": 4053,
      "蛔": 4054,
      "蛙": 4055,
      "蛛": 4056,
      "蛤": 4057,
      "蛮": 4058,
      "蛰": 4059,
      "蛹": 4060,
      "蛾": 4061,
      "蜀": 4062,
      "蜂": 4063,
      "蜒": 4064,
      "蜕": 4065,
      "蜗": 4066,
      "蜘": 4067,
      "蜜": 4068,
      "蜡": 4069,
      "蝇": 4070,
      "蝉": 4071,
      "蝎": 4072,
      "蝗": 4073,
      "蝴": 4074,
      "蝶": 4075,
      "融": 4076,
      "螟": 4077,
      "螺": 4078,
      "蟹": 4079,
      "蠕": 4080,
      "蠢": 4081,
      "血": 4082,
      "衅": 4083,
      "行": 4084,
      "衍": 4085,
      "衔": 4086,
      "街": 4087,
      "衙": 4088,
      "衛": 4089,
      "衡": 4090,
      "衣": 4091,
      "补": 4092,
      "表": 4093,
      "衫": 4094,
      "衬": 4095,
      "衰": 4096,
      "衷": 4097,
      "袁": 4098,
      "袄": 4099,
      "袋": 4100,
      "袍": 4101,
      "袒": 4102,
      "袖": 4103,
      "袜": 4104,
      "被": 4105,
      "袭": 4106,
      "袱": 4107,
      "裁": 4108,
      "裂": 4109,
      "装": 4110,
      "裔": 4111,
      "裕": 4112,
      "裙": 4113,
      "裤": 4114,
      "裳": 4115,
      "裴": 4116,
      "裸": 4117,
      "裹": 4118,
      "褂": 4119,
      "複": 4120,
      "褐": 4121,
      "褒": 4122,
      "褥": 4123,
      "褪": 4124,
      "襄": 4125,
      "襟": 4126,
      "西": 4127,
      "要": 4128,
      "覆": 4129,
      "見": 4130,
      "規": 4131,
      "視": 4132,
      "覚": 4133,
      "観": 4134,
      "覺": 4135,
      "见": 4136,
      "观": 4137,
      "规": 4138,
      "觅": 4139,
      "视": 4140,
      "览": 4141,
      "觉": 4142,
      "角": 4143,
      "解": 4144,
      "触": 4145,
      "言": 4146,
      "計": 4147,
      "訊": 4148,
      "訓": 4149,
      "記": 4150,
      "設": 4151,
      "許": 4152,
      "証": 4153,
      "評": 4154,
      "試": 4155,
      "話": 4156,
      "詹": 4157,
      "誉": 4158,
      "誊": 4159,
      "認": 4160,
      "誓": 4161,
      "語": 4162,
      "誤": 4163,
      "説": 4164,
      "読": 4165,
      "課": 4166,
      "調": 4167,
      "請": 4168,
      "論": 4169,
      "識": 4170,
      "警": 4171,
      "譬": 4172,
      "计": 4173,
      "订": 4174,
      "讣": 4175,
      "认": 4176,
      "讥": 4177,
      "讨": 4178,
      "让": 4179,
      "讫": 4180,
      "训": 4181,
      "议": 4182,
      "讯": 4183,
      "记": 4184,
      "讲": 4185,
      "讳": 4186,
      "讶": 4187,
      "许": 4188,
      "讹": 4189,
      "论": 4190,
      "讼": 4191,
      "讽": 4192,
      "设": 4193,
      "访": 4194,
      "诀": 4195,
      "证": 4196,
      "评": 4197,
      "诅": 4198,
      "识": 4199,
      "诈": 4200,
      "诉": 4201,
      "诊": 4202,
      "诌": 4203,
      "词": 4204,
      "译": 4205,
      "试": 4206,
      "诗": 4207,
      "诚": 4208,
      "诛": 4209,
      "话": 4210,
      "诞": 4211,
      "诡": 4212,
      "询": 4213,
      "诣": 4214,
      "该": 4215,
      "详": 4216,
      "诧": 4217,
      "诫": 4218,
      "诬": 4219,
      "语": 4220,
      "误": 4221,
      "诱": 4222,
      "诲": 4223,
      "说": 4224,
      "诵": 4225,
      "请": 4226,
      "诸": 4227,
      "诺": 4228,
      "读": 4229,
      "诽": 4230,
      "课": 4231,
      "谁": 4232,
      "调": 4233,
      "谅": 4234,
      "谆": 4235,
      "谈": 4236,
      "谊": 4237,
      "谋": 4238,
      "谍": 4239,
      "谎": 4240,
      "谐": 4241,
      "谓": 4242,
      "谗": 4243,
      "谚": 4244,
      "谜": 4245,
      "谢": 4246,
      "谣": 4247,
      "谤": 4248,
      "谦": 4249,
      "谨": 4250,
      "谩": 4251,
      "谬": 4252,
      "谭": 4253,
      "谰": 4254,
      "谱": 4255,
      "谴": 4256,
      "谷": 4257,
      "豁": 4258,
      "豆": 4259,
      "豌": 4260,
      "象": 4261,
      "豢": 4262,
      "豪": 4263,
      "豫": 4264,
      "豹": 4265,
      "豺": 4266,
      "貉": 4267,
      "貌": 4268,
      "買": 4269,
      "貸": 4270,
      "資": 4271,
      "質": 4272,
      "贝": 4273,
      "贞": 4274,
      "负": 4275,
      "贡": 4276,
      "财": 4277,
      "责": 4278,
      "贤": 4279,
      "败": 4280,
      "账": 4281,
      "货": 4282,
      "质": 4283,
      "贩": 4284,
      "贪": 4285,
      "贫": 4286,
      "贬": 4287,
      "购": 4288,
      "贮": 4289,
      "贯": 4290,
      "贰": 4291,
      "贱": 4292,
      "贴": 4293,
      "贵": 4294,
      "贷": 4295,
      "贸": 4296,
      "费": 4297,
      "贺": 4298,
      "贼": 4299,
      "贾": 4300,
      "贿": 4301,
      "赁": 4302,
      "赂": 4303,
      "赃": 4304,
      "资": 4305,
      "赊": 4306,
      "赋": 4307,
      "赌": 4308,
      "赎": 4309,
      "赏": 4310,
      "赐": 4311,
      "赔": 4312,
      "赖": 4313,
      "赘": 4314,
      "赚": 4315,
      "赛": 4316,
      "赞": 4317,
      "赠": 4318,
      "赡": 4319,
      "赢": 4320,
      "赣": 4321,
      "赤": 4322,
      "赦": 4323,
      "赫": 4324,
      "走": 4325,
      "赴": 4326,
      "赵": 4327,
      "赶": 4328,
      "起": 4329,
      "趁": 4330,
      "超": 4331,
      "越": 4332,
      "趋": 4333,
      "趟": 4334,
      "趣": 4335,
      "足": 4336,
      "趴": 4337,
      "趾": 4338,
      "跃": 4339,
      "跋": 4340,
      "跌": 4341,
      "跑": 4342,
      "距": 4343,
      "跟": 4344,
      "跨": 4345,
      "跪": 4346,
      "路": 4347,
      "跳": 4348,
      "践": 4349,
      "跺": 4350,
      "踊": 4351,
      "踌": 4352,
      "踏": 4353,
      "踞": 4354,
      "踢": 4355,
      "踩": 4356,
      "踪": 4357,
      "蹄": 4358,
      "蹈": 4359,
      "蹋": 4360,
      "蹦": 4361,
      "蹬": 4362,
      "蹭": 4363,
      "蹲": 4364,
      "蹿": 4365,
      "躁": 4366,
      "躇": 4367,
      "身": 4368,
      "躬": 4369,
      "躯": 4370,
      "躲": 4371,
      "躺": 4372,
      "車": 4373,
      "転": 4374,
      "軸": 4375,
      "軽": 4376,
      "較": 4377,
      "輸": 4378,
      "车": 4379,
      "轧": 4380,
      "轨": 4381,
      "轩": 4382,
      "转": 4383,
      "轮": 4384,
      "软": 4385,
      "轰": 4386,
      "轴": 4387,
      "轻": 4388,
      "载": 4389,
      "轿": 4390,
      "较": 4391,
      "辅": 4392,
      "辆": 4393,
      "辈": 4394,
      "辉": 4395,
      "辊": 4396,
      "辐": 4397,
      "辑": 4398,
      "输": 4399,
      "辕": 4400,
      "辖": 4401,
      "辗": 4402,
      "辙": 4403,
      "辛": 4404,
      "辜": 4405,
      "辞": 4406,
      "辟": 4407,
      "辣": 4408,
      "辦": 4409,
      "辨": 4410,
      "辩": 4411,
      "辫": 4412,
      "辰": 4413,
      "辱": 4414,
      "農": 4415,
      "边": 4416,
      "辺": 4417,
      "込": 4418,
      "辽": 4419,
      "达": 4420,
      "迁": 4421,
      "迂": 4422,
      "迄": 4423,
      "迅": 4424,
      "过": 4425,
      "迈": 4426,
      "迎": 4427,
      "运": 4428,
      "近": 4429,
      "返": 4430,
      "还": 4431,
      "这": 4432,
      "进": 4433,
      "远": 4434,
      "违": 4435,
      "连": 4436,
      "迟": 4437,
      "迢": 4438,
      "迪": 4439,
      "迫": 4440,
      "迭": 4441,
      "述": 4442,
      "迴": 4443,
      "迷": 4444,
      "迸": 4445,
      "迹": 4446,
      "追": 4447,
      "退": 4448,
      "送": 4449,
      "适": 4450,
      "逃": 4451,
      "逆": 4452,
      "选": 4453,
      "逊": 4454,
      "透": 4455,
      "逐": 4456,
      "递": 4457,
      "途": 4458,
      "逗": 4459,
      "通": 4460,
      "逛": 4461,
      "逝": 4462,
      "逞": 4463,
      "速": 4464,
      "造": 4465,
      "逢": 4466,
      "連": 4467,
      "逮": 4468,
      "進": 4469,
      "逸": 4470,
      "逻": 4471,
      "逼": 4472,
      "逾": 4473,
      "遁": 4474,
      "遂": 4475,
      "遇": 4476,
      "遍": 4477,
      "過": 4478,
      "遏": 4479,
      "道": 4480,
      "達": 4481,
      "違": 4482,
      "遗": 4483,
      "遣": 4484,
      "遥": 4485,
      "適": 4486,
      "遭": 4487,
      "遮": 4488,
      "遵": 4489,
      "選": 4490,
      "避": 4491,
      "邀": 4492,
      "邑": 4493,
      "邓": 4494,
      "邢": 4495,
      "那": 4496,
      "邦": 4497,
      "邪": 4498,
      "邮": 4499,
      "邯": 4500,
      "邱": 4501,
      "邵": 4502,
      "邹": 4503,
      "邻": 4504,
      "郁": 4505,
      "郊": 4506,
      "郎": 4507,
      "郑": 4508,
      "郝": 4509,
      "郡": 4510,
      "郧": 4511,
      "部": 4512,
      "郭": 4513,
      "郴": 4514,
      "郸": 4515,
      "都": 4516,
      "鄂": 4517,
      "鄙": 4518,
      "酉": 4519,
      "酋": 4520,
      "酌": 4521,
      "配": 4522,
      "酒": 4523,
      "酗": 4524,
      "酚": 4525,
      "酝": 4526,
      "酞": 4527,
      "酣": 4528,
      "酥": 4529,
      "酪": 4530,
      "酬": 4531,
      "酮": 4532,
      "酱": 4533,
      "酵": 4534,
      "酶": 4535,
      "酷": 4536,
      "酸": 4537,
      "酿": 4538,
      "醇": 4539,
      "醉": 4540,
      "醋": 4541,
      "醒": 4542,
      "醚": 4543,
      "醛": 4544,
      "醫": 4545,
      "采": 4546,
      "釉": 4547,
      "释": 4548,
      "里": 4549,
      "重": 4550,
      "野": 4551,
      "量": 4552,
      "金": 4553,
      "釜": 4554,
      "鉴": 4555,
      "錯": 4556,
      "鍊": 4557,
      "针": 4558,
      "钉": 4559,
      "钎": 4560,
      "钒": 4561,
      "钓": 4562,
      "钙": 4563,
      "钝": 4564,
      "钞": 4565,
      "钟": 4566,
      "钠": 4567,
      "钡": 4568,
      "钢": 4569,
      "钥": 4570,
      "钦": 4571,
      "钧": 4572,
      "钨": 4573,
      "钩": 4574,
      "钮": 4575,
      "钱": 4576,
      "钳": 4577,
      "钵": 4578,
      "钻": 4579,
      "钾": 4580,
      "铀": 4581,
      "铁": 4582,
      "铂": 4583,
      "铃": 4584,
      "铅": 4585,
      "铆": 4586,
      "铜": 4587,
      "铝": 4588,
      "铡": 4589,
      "铣": 4590,
      "铬": 4591,
      "铭": 4592,
      "铰": 4593,
      "铱": 4594,
      "铲": 4595,
      "银": 4596,
      "铸": 4597,
      "铺": 4598,
      "链": 4599,
      "销": 4600,
      "锁": 4601,
      "锄": 4602,
      "锅": 4603,
      "锈": 4604,
      "锋": 4605,
      "锌": 4606,
      "锐": 4607,
      "锑": 4608,
      "锗": 4609,
      "错": 4610,
      "锚": 4611,
      "锡": 4612,
      "锣": 4613,
      "锤": 4614,
      "锥": 4615,
      "锦": 4616,
      "锨": 4617,
      "锭": 4618,
      "键": 4619,
      "锯": 4620,
      "锰": 4621,
      "锹": 4622,
      "锻": 4623,
      "镀": 4624,
      "镁": 4625,
      "镇": 4626,
      "镊": 4627,
      "镍": 4628,
      "镐": 4629,
      "镑": 4630,
      "镜": 4631,
      "镣": 4632,
      "镭": 4633,
      "镰": 4634,
      "镶": 4635,
      "长": 4636,
      "開": 4637,
      "間": 4638,
      "関": 4639,
      "门": 4640,
      "闪": 4641,
      "闭": 4642,
      "问": 4643,
      "闯": 4644,
      "闰": 4645,
      "闲": 4646,
      "间": 4647,
      "闷": 4648,
      "闸": 4649,
      "闹": 4650,
      "闺": 4651,
      "闻": 4652,
      "闽": 4653,
      "阀": 4654,
      "阁": 4655,
      "阂": 4656,
      "阅": 4657,
      "阉": 4658,
      "阎": 4659,
      "阐": 4660,
      "阑": 4661,
      "阔": 4662,
      "阜": 4663,
      "队": 4664,
      "阮": 4665,
      "防": 4666,
      "阳": 4667,
      "阴": 4668,
      "阵": 4669,
      "阶": 4670,
      "阻": 4671,
      "阿": 4672,
      "陀": 4673,
      "附": 4674,
      "际": 4675,
      "陆": 4676,
      "陇": 4677,
      "陈": 4678,
      "陋": 4679,
      "陌": 4680,
      "降": 4681,
      "限": 4682,
      "陕": 4683,
      "陛": 4684,
      "陡": 4685,
      "院": 4686,
      "除": 4687,
      "陨": 4688,
      "险": 4689,
      "陪": 4690,
      "陵": 4691,
      "陶": 4692,
      "陷": 4693,
      "隅": 4694,
      "隆": 4695,
      "隋": 4696,
      "階": 4697,
      "随": 4698,
      "隐": 4699,
      "隔": 4700,
      "隘": 4701,
      "隙": 4702,
      "際": 4703,
      "障": 4704,
      "隧": 4705,
      "隨": 4706,
      "隶": 4707,
      "难": 4708,
      "雀": 4709,
      "雁": 4710,
      "雄": 4711,
      "雅": 4712,
      "集": 4713,
      "雇": 4714,
      "雌": 4715,
      "雍": 4716,
      "雏": 4717,
      "雕": 4718,
      "離": 4719,
      "難": 4720,
      "雨": 4721,
      "雪": 4722,
      "零": 4723,
      "雷": 4724,
      "雹": 4725,
      "電": 4726,
      "雾": 4727,
      "需": 4728,
      "霄": 4729,
      "震": 4730,
      "霉": 4731,
      "霍": 4732,
      "霓": 4733,
      "霖": 4734,
      "霜": 4735,
      "霞": 4736,
      "露": 4737,
      "霸": 4738,
      "霹": 4739,
      "青": 4740,
      "靖": 4741,
      "静": 4742,
      "靛": 4743,
      "非": 4744,
      "靠": 4745,
      "靡": 4746,
      "面": 4747,
      "革": 4748,
      "靳": 4749,
      "靴": 4750,
      "靶": 4751,
      "鞋": 4752,
      "鞍": 4753,
      "鞘": 4754,
      "鞠": 4755,
      "鞭": 4756,
      "韦": 4757,
      "韧": 4758,
      "韩": 4759,
      "韭": 4760,
      "音": 4761,
      "韵": 4762,
      "韶": 4763,
      "響": 4764,
      "頂": 4765,
      "項": 4766,
      "順": 4767,
      "預": 4768,
      "領": 4769,
      "頭": 4770,
      "題": 4771,
      "額": 4772,
      "類": 4773,
      "顧": 4774,
      "页": 4775,
      "顶": 4776,
      "顷": 4777,
      "项": 4778,
      "顺": 4779,
      "须": 4780,
      "顽": 4781,
      "顾": 4782,
      "顿": 4783,
      "颁": 4784,
      "颂": 4785,
      "预": 4786,
      "颅": 4787,
      "领": 4788,
      "颇": 4789,
      "颈": 4790,
      "颊": 4791,
      "颐": 4792,
      "频": 4793,
      "颓": 4794,
      "颖": 4795,
      "颗": 4796,
      "题": 4797,
      "颜": 4798,
      "额": 4799,
      "颠": 4800,
      "颤": 4801,
      "颧": 4802,
      "风": 4803,
      "飘": 4804,
      "飞": 4805,
      "食": 4806,
      "餐": 4807,
      "饥": 4808,
      "饭": 4809,
      "饮": 4810,
      "饯": 4811,
      "饰": 4812,
      "饱": 4813,
      "饲": 4814,
      "饵": 4815,
      "饶": 4816,
      "饺": 4817,
      "饼": 4818,
      "饿": 4819,
      "馁": 4820,
      "馅": 4821,
      "馆": 4822,
      "馈": 4823,
      "馋": 4824,
      "馏": 4825,
      "馒": 4826,
      "首": 4827,
      "香": 4828,
      "駅": 4829,
      "騎": 4830,
      "験": 4831,
      "马": 4832,
      "驭": 4833,
      "驮": 4834,
      "驯": 4835,
      "驰": 4836,
      "驱": 4837,
      "驳": 4838,
      "驴": 4839,
      "驶": 4840,
      "驹": 4841,
      "驻": 4842,
      "驼": 4843,
      "驾": 4844,
      "骂": 4845,
      "骄": 4846,
      "骆": 4847,
      "骇": 4848,
      "骋": 4849,
      "验": 4850,
      "骏": 4851,
      "骑": 4852,
      "骗": 4853,
      "骚": 4854,
      "骡": 4855,
      "骤": 4856,
      "骨": 4857,
      "骸": 4858,
      "髓": 4859,
      "高": 4860,
      "鬃": 4861,
      "鬼": 4862,
      "魁": 4863,
      "魂": 4864,
      "魄": 4865,
      "魏": 4866,
      "魔": 4867,
      "鱼": 4868,
      "鲁": 4869,
      "鲍": 4870,
      "鲜": 4871,
      "鲤": 4872,
      "鲸": 4873,
      "鳃": 4874,
      "鳖": 4875,
      "鳞": 4876,
      "鸟": 4877,
      "鸡": 4878,
      "鸣": 4879,
      "鸥": 4880,
      "鸦": 4881,
      "鸭": 4882,
      "鸯": 4883,
      "鸳": 4884,
      "鸵": 4885,
      "鸽": 4886,
      "鸿": 4887,
      "鹃": 4888,
      "鹅": 4889,
      "鹊": 4890,
      "鹏": 4891,
      "鹤": 4892,
      "鹰": 4893,
      "鹿": 4894,
      "麓": 4895,
      "麦": 4896,
      "麻": 4897,
      "黄": 4898,
      "黍": 4899,
      "黎": 4900,
      "黑": 4901,
      "黔": 4902,
      "默": 4903,
      "鼎": 4904,
      "鼓": 4905,
      "鼠": 4906,
      "鼻": 4907,
      "齐": 4908,
      "齡": 4909,
      "齿": 4910,
      "龄": 4911,
      "龋": 4912,
      "龙": 4913,
      "龚": 4914,
      "龟": 4915,
      "가": 4916,
      "각": 4917,
      "간": 4918,
      "갈": 4919,
      "감": 4920,
      "값": 4921,
      "갔": 4922,
      "강": 4923,
      "갖": 4924,
      "같": 4925,
      "개": 4926,
      "객": 4927,
      "갭": 4928,
      "갯": 4929,
      "걍": 4930,
      "거": 4931,
      "건": 4932,
      "걷": 4933,
      "걸": 4934,
      "검": 4935,
      "것": 4936,
      "게": 4937,
      "겟": 4938,
      "겠": 4939,
      "겨": 4940,
      "격": 4941,
      "견": 4942,
      "결": 4943,
      "경": 4944,
      "계": 4945,
      "곗": 4946,
      "고": 4947,
      "곡": 4948,
      "골": 4949,
      "곱": 4950,
      "공": 4951,
      "과": 4952,
      "곽": 4953,
      "관": 4954,
      "괏": 4955,
      "광": 4956,
      "교": 4957,
      "구": 4958,
      "국": 4959,
      "군": 4960,
      "궁": 4961,
      "권": 4962,
      "귀": 4963,
      "규": 4964,
      "균": 4965,
      "귤": 4966,
      "그": 4967,
      "극": 4968,
      "근": 4969,
      "글": 4970,
      "금": 4971,
      "급": 4972,
      "긍": 4973,
      "기": 4974,
      "긴": 4975,
      "길": 4976,
      "김": 4977,
      "깃": 4978,
      "깊": 4979,
      "까": 4980,
      "께": 4981,
      "꼴": 4982,
      "꽃": 4983,
      "꿈": 4984,
      "꿔": 4985,
      "끌": 4986,
      "끝": 4987,
      "끼": 4988,
      "나": 4989,
      "난": 4990,
      "날": 4991,
      "남": 4992,
      "낮": 4993,
      "내": 4994,
      "냄": 4995,
      "냅": 4996,
      "냐": 4997,
      "냥": 4998,
      "너": 4999,
      "널": 5000,
      "넘": 5001,
      "넣": 5002,
      "네": 5003,
      "넷": 5004,
      "녀": 5005,
      "년": 5006,
      "노": 5007,
      "높": 5008,
      "누": 5009,
      "눈": 5010,
      "눔": 5011,
      "눠": 5012,
      "뉘": 5013,
      "뉴": 5014,
      "는": 5015,
      "늘": 5016,
      "능": 5017,
      "니": 5018,
      "닉": 5019,
      "닌": 5020,
      "닝": 5021,
      "다": 5022,
      "단": 5023,
      "달": 5024,
      "담": 5025,
      "답": 5026,
      "당": 5027,
      "대": 5028,
      "더": 5029,
      "덕": 5030,
      "던": 5031,
      "덟": 5032,
      "덤": 5033,
      "데": 5034,
      "덱": 5035,
      "델": 5036,
      "도": 5037,
      "독": 5038,
      "돌": 5039,
      "동": 5040,
      "돼": 5041,
      "되": 5042,
      "된": 5043,
      "될": 5044,
      "됨": 5045,
      "됩": 5046,
      "두": 5047,
      "둔": 5048,
      "둘": 5049,
      "뒤": 5050,
      "드": 5051,
      "득": 5052,
      "든": 5053,
      "들": 5054,
      "듭": 5055,
      "듯": 5056,
      "등": 5057,
      "디": 5058,
      "딕": 5059,
      "딩": 5060,
      "따": 5061,
      "때": 5062,
      "떤": 5063,
      "떨": 5064,
      "떻": 5065,
      "또": 5066,
      "뛰": 5067,
      "뜨": 5068,
      "뜻": 5069,
      "라": 5070,
      "락": 5071,
      "랄": 5072,
      "람": 5073,
      "랍": 5074,
      "랑": 5075,
      "래": 5076,
      "랜": 5077,
      "램": 5078,
      "략": 5079,
      "량": 5080,
      "러": 5081,
      "런": 5082,
      "럴": 5083,
      "럼": 5084,
      "렇": 5085,
      "레": 5086,
      "려": 5087,
      "력": 5088,
      "련": 5089,
      "렬": 5090,
      "렴": 5091,
      "령": 5092,
      "례": 5093,
      "로": 5094,
      "록": 5095,
      "론": 5096,
      "롤": 5097,
      "롭": 5098,
      "롯": 5099,
      "뢰": 5100,
      "료": 5101,
      "루": 5102,
      "룬": 5103,
      "류": 5104,
      "률": 5105,
      "르": 5106,
      "른": 5107,
      "를": 5108,
      "름": 5109,
      "릅": 5110,
      "릉": 5111,
      "리": 5112,
      "린": 5113,
      "릴": 5114,
      "림": 5115,
      "립": 5116,
      "릿": 5117,
      "링": 5118,
      "마": 5119,
      "막": 5120,
      "만": 5121,
      "많": 5122,
      "말": 5123,
      "맘": 5124,
      "망": 5125,
      "맞": 5126,
      "매": 5127,
      "머": 5128,
      "먹": 5129,
      "먼": 5130,
      "멀": 5131,
      "메": 5132,
      "멘": 5133,
      "며": 5134,
      "면": 5135,
      "명": 5136,
      "모": 5137,
      "목": 5138,
      "못": 5139,
      "무": 5140,
      "묵": 5141,
      "문": 5142,
      "물": 5143,
      "뭐": 5144,
      "므": 5145,
      "미": 5146,
      "민": 5147,
      "밀": 5148,
      "밍": 5149,
      "및": 5150,
      "밑": 5151,
      "바": 5152,
      "박": 5153,
      "반": 5154,
      "받": 5155,
      "발": 5156,
      "밝": 5157,
      "방": 5158,
      "배": 5159,
      "백": 5160,
      "버": 5161,
      "번": 5162,
      "범": 5163,
      "법": 5164,
      "베": 5165,
      "벡": 5166,
      "벨": 5167,
      "벽": 5168,
      "변": 5169,
      "별": 5170,
      "병": 5171,
      "보": 5172,
      "복": 5173,
      "본": 5174,
      "볼": 5175,
      "봄": 5176,
      "봉": 5177,
      "봤": 5178,
      "부": 5179,
      "북": 5180,
      "분": 5181,
      "불": 5182,
      "붓": 5183,
      "뷰": 5184,
      "브": 5185,
      "블": 5186,
      "비": 5187,
      "빈": 5188,
      "빌": 5189,
      "빙": 5190,
      "사": 5191,
      "삭": 5192,
      "산": 5193,
      "살": 5194,
      "삼": 5195,
      "상": 5196,
      "새": 5197,
      "색": 5198,
      "샘": 5199,
      "생": 5200,
      "샵": 5201,
      "서": 5202,
      "석": 5203,
      "선": 5204,
      "설": 5205,
      "섭": 5206,
      "섯": 5207,
      "성": 5208,
      "세": 5209,
      "섹": 5210,
      "센": 5211,
      "셀": 5212,
      "셉": 5213,
      "셋": 5214,
      "셔": 5215,
      "션": 5216,
      "소": 5217,
      "속": 5218,
      "손": 5219,
      "솔": 5220,
      "송": 5221,
      "수": 5222,
      "숙": 5223,
      "순": 5224,
      "술": 5225,
      "숫": 5226,
      "숭": 5227,
      "숲": 5228,
      "쉽": 5229,
      "슈": 5230,
      "슐": 5231,
      "스": 5232,
      "슬": 5233,
      "습": 5234,
      "슷": 5235,
      "승": 5236,
      "시": 5237,
      "식": 5238,
      "신": 5239,
      "실": 5240,
      "심": 5241,
      "십": 5242,
      "싶": 5243,
      "쌓": 5244,
      "썬": 5245,
      "쏘": 5246,
      "쏠": 5247,
      "쓰": 5248,
      "쓸": 5249,
      "씨": 5250,
      "씩": 5251,
      "아": 5252,
      "악": 5253,
      "안": 5254,
      "않": 5255,
      "알": 5256,
      "암": 5257,
      "압": 5258,
      "았": 5259,
      "앙": 5260,
      "애": 5261,
      "액": 5262,
      "앤": 5263,
      "야": 5264,
      "약": 5265,
      "양": 5266,
      "어": 5267,
      "억": 5268,
      "언": 5269,
      "얻": 5270,
      "얼": 5271,
      "업": 5272,
      "없": 5273,
      "었": 5274,
      "에": 5275,
      "엘": 5276,
      "여": 5277,
      "역": 5278,
      "연": 5279,
      "열": 5280,
      "였": 5281,
      "영": 5282,
      "옆": 5283,
      "예": 5284,
      "오": 5285,
      "온": 5286,
      "올": 5287,
      "와": 5288,
      "완": 5289,
      "왜": 5290,
      "외": 5291,
      "요": 5292,
      "욕": 5293,
      "용": 5294,
      "우": 5295,
      "운": 5296,
      "울": 5297,
      "움": 5298,
      "웃": 5299,
      "워": 5300,
      "원": 5301,
      "월": 5302,
      "웨": 5303,
      "위": 5304,
      "유": 5305,
      "육": 5306,
      "윤": 5307,
      "율": 5308,
      "윳": 5309,
      "융": 5310,
      "으": 5311,
      "은": 5312,
      "을": 5313,
      "음": 5314,
      "응": 5315,
      "의": 5316,
      "이": 5317,
      "익": 5318,
      "인": 5319,
      "일": 5320,
      "읽": 5321,
      "임": 5322,
      "입": 5323,
      "있": 5324,
      "잎": 5325,
      "자": 5326,
      "작": 5327,
      "잖": 5328,
      "잘": 5329,
      "잠": 5330,
      "잡": 5331,
      "장": 5332,
      "재": 5333,
      "저": 5334,
      "적": 5335,
      "전": 5336,
      "절": 5337,
      "점": 5338,
      "접": 5339,
      "정": 5340,
      "제": 5341,
      "젝": 5342,
      "젠": 5343,
      "져": 5344,
      "졌": 5345,
      "조": 5346,
      "존": 5347,
      "좀": 5348,
      "종": 5349,
      "좆": 5350,
      "좋": 5351,
      "좌": 5352,
      "죄": 5353,
      "주": 5354,
      "준": 5355,
      "줄": 5356,
      "줌": 5357,
      "줍": 5358,
      "중": 5359,
      "줘": 5360,
      "즈": 5361,
      "즉": 5362,
      "즘": 5363,
      "증": 5364,
      "지": 5365,
      "직": 5366,
      "진": 5367,
      "질": 5368,
      "집": 5369,
      "징": 5370,
      "짜": 5371,
      "짝": 5372,
      "째": 5373,
      "쪽": 5374,
      "차": 5375,
      "착": 5376,
      "찬": 5377,
      "찰": 5378,
      "참": 5379,
      "창": 5380,
      "찾": 5381,
      "채": 5382,
      "책": 5383,
      "처": 5384,
      "척": 5385,
      "천": 5386,
      "철": 5387,
      "첫": 5388,
      "청": 5389,
      "체": 5390,
      "첸": 5391,
      "쳐": 5392,
      "쳤": 5393,
      "초": 5394,
      "촌": 5395,
      "총": 5396,
      "최": 5397,
      "추": 5398,
      "축": 5399,
      "출": 5400,
      "춤": 5401,
      "충": 5402,
      "취": 5403,
      "츄": 5404,
      "츠": 5405,
      "측": 5406,
      "층": 5407,
      "치": 5408,
      "칠": 5409,
      "침": 5410,
      "카": 5411,
      "칸": 5412,
      "칼": 5413,
      "캐": 5414,
      "캠": 5415,
      "캡": 5416,
      "캣": 5417,
      "커": 5418,
      "컬": 5419,
      "컴": 5420,
      "컵": 5421,
      "케": 5422,
      "켓": 5423,
      "켜": 5424,
      "코": 5425,
      "콜": 5426,
      "쿠": 5427,
      "크": 5428,
      "큰": 5429,
      "클": 5430,
      "큼": 5431,
      "키": 5432,
      "킬": 5433,
      "킹": 5434,
      "타": 5435,
      "탁": 5436,
      "탈": 5437,
      "탐": 5438,
      "탑": 5439,
      "탕": 5440,
      "태": 5441,
      "택": 5442,
      "터": 5443,
      "턴": 5444,
      "텀": 5445,
      "테": 5446,
      "텔": 5447,
      "템": 5448,
      "토": 5449,
      "톤": 5450,
      "톨": 5451,
      "통": 5452,
      "퇴": 5453,
      "투": 5454,
      "튜": 5455,
      "트": 5456,
      "특": 5457,
      "튼": 5458,
      "티": 5459,
      "팅": 5460,
      "파": 5461,
      "판": 5462,
      "팔": 5463,
      "패": 5464,
      "팩": 5465,
      "팰": 5466,
      "팸": 5467,
      "퍼": 5468,
      "페": 5469,
      "펴": 5470,
      "편": 5471,
      "평": 5472,
      "폐": 5473,
      "포": 5474,
      "폭": 5475,
      "폰": 5476,
      "폴": 5477,
      "표": 5478,
      "푸": 5479,
      "풀": 5480,
      "품": 5481,
      "풍": 5482,
      "퓨": 5483,
      "프": 5484,
      "플": 5485,
      "피": 5486,
      "픽": 5487,
      "핀": 5488,
      "필": 5489,
      "하": 5490,
      "학": 5491,
      "한": 5492,
      "할": 5493,
      "함": 5494,
      "합": 5495,
      "핫": 5496,
      "항": 5497,
      "해": 5498,
      "핸": 5499,
      "했": 5500,
      "행": 5501,
      "향": 5502,
      "허": 5503,
      "험": 5504,
      "헤": 5505,
      "현": 5506,
      "혐": 5507,
      "협": 5508,
      "형": 5509,
      "호": 5510,
      "혼": 5511,
      "홈": 5512,
      "홉": 5513,
      "홍": 5514,
      "화": 5515,
      "확": 5516,
      "환": 5517,
      "활": 5518,
      "황": 5519,
      "회": 5520,
      "횟": 5521,
      "효": 5522,
      "후": 5523,
      "훈": 5524,
      "휘": 5525,
      "휴": 5526,
      "흑": 5527,
      "흘": 5528,
      "희": 5529,
      "히": 5530,
      "힐": 5531,
      "힣": 5532,
      "ﷺ": 5533,
      "️": 5534,
      "！": 5535,
      "＃": 5536,
      "％": 5537,
      "（": 5538,
      "）": 5539,
      "，": 5540,
      "．": 5541,
      "／": 5542,
      "４": 5543,
      "：": 5544,
      "；": 5545,
      "＝": 5546,
      "？": 5547,
      "＾": 5548,
      "ｍ": 5549,
      "ｕ": 5550,
      "ｖ": 5551,
      "￣": 5552,
      "￥": 5553,
      "�": 5554,
      "𐀀": 5555,
      "𝐷": 5556,
      "𝐿": 5557,
      "𝑀": 5558,
      "𝑂": 5559,
      "𝑅": 5560,
      "𝑎": 5561,
      "𝑏": 5562,
      "𝑒": 5563,
      "𝑔": 5564,
      "𝑖": 5565,
      "𝑙": 5566,
      "𝑚": 5567,
      "𝑛": 5568,
      "𝑜": 5569,
      "𝑟": 5570,
      "𝑡": 5571,
      "𝑢": 5572,
      "𝑤": 5573,
      "𝑥": 5574,
      "𝑦": 5575,
      "🇿": 5576,
      "🉑": 5577,
      "🌀": 5578,
      "🌟": 5579,
      "🍅": 5580,
      "🎯": 5581,
      "🏆": 5582,
      "🏻": 5583,
      "🏼": 5584,
      "🏽": 5585,
      "🐧": 5586,
      "🐫": 5587,
      "👋": 5588,
      "👍": 5589,
      "👏": 5590,
      "👨": 5591,
      "👳": 5592,
      "👿": 5593,
      "💀": 5594,
      "💁": 5595,
      "💃": 5596,
      "💉": 5597,
      "💔": 5598,
      "💕": 5599,
      "💖": 5600,
      "💗": 5601,
      "💙": 5602,
      "💚": 5603,
      "💛": 5604,
      "💜": 5605,
      "💝": 5606,
      "💪": 5607,
      "📊": 5608,
      "📰": 5609,
      "🔴": 5610,
      "🖤": 5611,
      "🗿": 5612,
      "😀": 5613,
      "😁": 5614,
      "😂": 5615,
      "😃": 5616,
      "😄": 5617,
      "😅": 5618,
      "😆": 5619,
      "😉": 5620,
      "😊": 5621,
      "😋": 5622,
      "😌": 5623,
      "😍": 5624,
      "😎": 5625,
      "😐": 5626,
      "😑": 5627,
      "😒": 5628,
      "😓": 5629,
      "😔": 5630,
      "😕": 5631,
      "😖": 5632,
      "😘": 5633,
      "😞": 5634,
      "😟": 5635,
      "😠": 5636,
      "😡": 5637,
      "😢": 5638,
      "😣": 5639,
      "😤": 5640,
      "😥": 5641,
      "😨": 5642,
      "😩": 5643,
      "😫": 5644,
      "😭": 5645,
      "😮": 5646,
      "😰": 5647,
      "😱": 5648,
      "😳": 5649,
      "😴": 5650,
      "😵": 5651,
      "😶": 5652,
      "😷": 5653,
      "😸": 5654,
      "😺": 5655,
      "😿": 5656,
      "🙁": 5657,
      "🙂": 5658,
      "🙄": 5659,
      "🙈": 5660,
      "🙋": 5661,
      "🙌": 5662,
      "🙍": 5663,
      "🙎": 5664,
      "🙏": 5665,
      "🚀": 5666,
      "🟢": 5667,
      "🤍": 5668,
      "🤔": 5669,
      "🤖": 5670,
      "🤗": 5671,
      "🤘": 5672,
      "🤝": 5673,
      "🤢": 5674,
      "🤣": 5675,
      "🤦": 5676,
      "🤨": 5677,
      "🤬": 5678,
      "🤮": 5679,
      "🤲": 5680,
      "🤵": 5681,
      "🤷": 5682,
      "🥰": 5683,
      "🥳": 5684,
      "🦰": 5685,
      "🧊": 5686,
      "ar": 5687,
      "_v": 5688,
      "_var": 5689,
      "_var1": 5690,
      "in": 5691,
      "_var2": 5692,
      "re": 5693,
      "ra": 5694,
      "at": 5695,
      "_var3": 5696,
      "st": 5697,
      "or": 5698,
      "er": 5699,
      "se": 5700,
      "_var4": 5701,
      "_0": 5702,
      "al": 5703,
      "de": 5704,
      "_t": 5705,
      "on": 5706,
      "_var5": 5707,
      "pl": 5708,
      "est": 5709,
      "_1": 5710,
      "rain": 5711,
      "_var6": 5712,
      "co": 5713,
      "im": 5714,
      "le": 5715,
      "_var7": 5716,
      "t_": 5717,
      "ro": 5718,
      "ic": 5719,
      "df": 5720,
      "_var8": 5721,
      "ion": 5722,
      "fi": 5723,
      "dat": 5724,
      "en": 5725,
      "_var9": 5726,
      "la": 5727,
      "()": 5728,
      "_p": 5729,
      "_var10": 5730,
      "an": 5731,
      "ss": 5732,
      "me": 5733,
      "data": 5734,
      "ort": 5735,
      "_var11": 5736,
      "lo": 5737,
      "mo": 5738,
      "pp": 5739,
      "red": 5740,
      "',": 5741,
      "ue": 5742,
      "port": 5743,
      "it": 5744,
      "_s": 5745,
      "_var12": 5746,
      "_test": 5747,
      "_train": 5748,
      "el": 5749,
      "_w": 5750,
      "del": 5751,
      "_2": 5752,
      "import": 5753,
      "ge": 5754,
      "_var13": 5755,
      "hi": 5756,
      "model": 5757,
      "pper": 5758,
      "_var14": 5759,
      "rapper": 5760,
      "_wrapper": 5761,
      "train": 5762,
      "plt": 5763,
      "_var15": 5764,
      "um": 5765,
      "ot": 5766,
      "int": 5767,
      "_var16": 5768,
      "ed": 5769,
      "ac": 5770,
      "ur": 5771,
      "ax": 5772,
      "_var17": 5773,
      "set_": 5774,
      "pr": 5775,
      "_var18": 5776,
      "un": 5777,
      "ing": 5778,
      "val": 5779,
      "tr": 5780,
      "iz": 5781,
      "_var19": 5782,
      "is": 5783,
      "dex": 5784,
      "index": 5785,
      "_var20": 5786,
      "col": 5787,
      "print": 5788,
      "es": 5789,
      "ns": 5790,
      "ut": 5791,
      "_var21": 5792,
      "for": 5793,
      "test": 5794,
      "as": 5795,
      "_var22": 5796,
      "00": 5797,
      "ad": 5798,
      "pe": 5799,
      "res": 5800,
      "_3": 5801,
      "rom": 5802,
      "from": 5803,
      "_var23": 5804,
      "bel": 5805,
      "id": 5806,
      "_var24": 5807,
      "ict": 5808,
      "_c": 5809,
      "plot": 5810,
      "urn": 5811,
      "_var25": 5812,
      "ret": 5813,
      "label": 5814,
      "return": 5815,
      "pred": 5816,
      "_var26": 5817,
      "sh": 5818,
      "__": 5819,
      "_var27": 5820,
      "ba": 5821,
      "arn": 5822,
      "ize": 5823,
      "core": 5824,
      "set_index": 5825,
      "):": 5826,
      "def": 5827,
      "ch": 5828,
      "np": 5829,
      "_var28": 5830,
      "value": 5831,
      "lass": 5832,
      "_var29": 5833,
      "':": 5834,
      "set_index_wrapper": 5835,
      "am": 5836,
      "learn": 5837,
      "eat": 5838,
      "_f": 5839,
      "_var31": 5840,
      "na": 5841,
      "sk": 5842,
      "_pred": 5843,
      "base": 5844,
      "ct": 5845,
      "_4": 5846,
      "__p": 5847,
      "hi__": 5848,
      "__phi__": 5849,
      "_var32": 5850,
      "_var30": 5851,
      "om": 5852,
      "set": 5853,
      "th": 5854,
      "_var33": 5855,
      "li": 5856,
      "attr": 5857,
      "sklearn": 5858,
      "_var34": 5859,
      "_data": 5860,
      "ul": 5861,
      "pd": 5862,
      "ate": 5863,
      "_var35": 5864,
      "ol": 5865,
      "ran": 5866,
      "_df": 5867,
      "['": 5868,
      "']": 5869,
      "_var36": 5870,
      "predict": 5871,
      "if": 5872,
      "ig": 5873,
      "mat": 5874,
      "_var37": 5875,
      "ts": 5876,
      "ce": 5877,
      "10": 5878,
      "eatu": 5879,
      "X_train": 5880,
      "ation": 5881,
      "_var38": 5882,
      "bal": 5883,
      "te": 5884,
      "fig": 5885,
      "lf": 5886,
      "_var39": 5887,
      "ine": 5888,
      "sv": 5889,
      "glo": 5890,
      "phi": 5891,
      "ape": 5892,
      "y_test": 5893,
      "cu": 5894,
      "iv": 5895,
      "and": 5896,
      "global": 5897,
      "rue": 5898,
      "age": 5899,
      "name": 5900,
      "y_train": 5901,
      "_5": 5902,
      "cal": 5903,
      "rac": 5904,
      "_var42": 5905,
      "global_wrapper": 5906,
      "_var40": 5907,
      "fit": 5908,
      "py": 5909,
      "_val": 5910,
      "_var43": 5911,
      "_score": 5912,
      "_var41": 5913,
      "curac": 5914,
      "_var44": 5915,
      "ow": 5916,
      "True": 5917,
      "ma": 5918,
      "--": 5919,
      "_var45": 5920,
      "curacy": 5921,
      "ers": 5922,
      "_var46": 5923,
      "num": 5924,
      "colum": 5925,
      "he": 5926,
      "end": 5927,
      "ke": 5928,
      "X_test": 5929,
      "_var47": 5930,
      "==": 5931,
      "ent": 5932,
      "_var48": 5933,
      "con": 5934,
      "ne": 5935,
      "ri": 5936,
      "mean": 5937,
      "_var49": 5938,
      "di": 5939,
      "gre": 5940,
      "shape": 5941,
      "ub": 5942,
      "rop": 5943,
      "coun": 5944,
      "20": 5945,
      "put": 5946,
      "y_pred": 5947,
      "Re": 5948,
      "_6": 5949,
      "_var50": 5950,
      "qu": 5951,
      "_model": 5952,
      "_var53": 5953,
      "_st": 5954,
      "to": 5955,
      "ab": 5956,
      "_var51": 5957,
      "igh": 5958,
      "_var54": 5959,
      "ifi": 5960,
      "max": 5961,
      "us": 5962,
      "_var52": 5963,
      "columns": 5964,
      "rand": 5965,
      "_var55": 5966,
      "ex": 5967,
      "accuracy": 5968,
      "_var56": 5969,
      "itle": 5970,
      "os": 5971,
      "axis": 5972,
      "lassifi": 5973,
      "_var57": 5974,
      "len": 5975,
      "of": 5976,
      "12": 5977,
      "ve": 5978,
      "_var58": 5979,
      "lassifier": 5980,
      "featu": 5981,
      "_var59": 5982,
      "list": 5983,
      "loc": 5984,
      "random": 5985,
      "gress": 5986,
      "sns": 5987,
      "size": 5988,
      "self": 5989,
      "plit": 5990,
      "rid": 5991,
      "phi_0": 5992,
      "15": 5993,
      "rans": 5994,
      "out": 5995,
      "_var60": 5996,
      "_var63": 5997,
      "op": 5998,
      "drop": 5999,
      "y_": 6000,
      "train_": 6001,
      "_var64": 6002,
      "25": 6003,
      "sub": 6004,
      "mb": 6005,
      "et": 6006,
      "s_": 6007,
      "_var65": 6008,
      "s_0": 6009,
      "_var66": 6010,
      "ord": 6011,
      "tric": 6012,
      "_var67": 6013,
      "_se": 6014,
      "show": 6015,
      "form": 6016,
      "_var62": 6017,
      "_var68": 6018,
      "pre": 6019,
      "pro": 6020,
      "ace": 6021,
      "line": 6022,
      "_size": 6023,
      "_var69": 6024,
      "ore": 6025,
      "metric": 6026,
      "Dat": 6027,
      "_var61": 6028,
      "il": 6029,
      "ter": 6030,
      "Data": 6031,
      "ampl": 6032,
      "_7": 6033,
      "par": 6034,
      "best": 6035,
      "ors": 6036,
      "_var70": 6037,
      "ype": 6038,
      "sc": 6039,
      "_var73": 6040,
      "image": 6041,
      "_var74": 6042,
      "100": 6043,
      "bo": 6044,
      "e_": 6045,
      "ction": 6046,
      "lay": 6047,
      "n_": 6048,
      "_var75": 6049,
      "Regress": 6050,
      "po": 6051,
      "Classifier": 6052,
      "class": 6053,
      "_var76": 6054,
      "head": 6055,
      "ure": 6056,
      "eld": 6057,
      "16": 6058,
      "_var77": 6059,
      "_var72": 6060,
      "_var78": 6061,
      "_split": 6062,
      "metrics": 6063,
      "test_": 6064,
      "mi": 6065,
      "_var79": 6066,
      "title": 6067,
      "add": 6068,
      "field": 6069,
      "[:": 6070,
      "ras": 6071,
      "ransform": 6072,
      "tim": 6073,
      "rix": 6074,
      "get_": 6075,
      "_re": 6076,
      "act": 6077,
      "alse": 6078,
      "_d": 6079,
      "set_field": 6080,
      "set_field_wrapper": 6081,
      "keras": 6082,
      "up": 6083,
      "input": 6084,
      "ision": 6085,
      "_var80": 6086,
      "_var83": 6087,
      "err": 6088,
      "rame": 6089,
      "place": 6090,
      "_var71": 6091,
      "_var84": 6092,
      "score": 6093,
      "hist": 6094,
      "False": 6095,
      "ath": 6096,
      "one": 6097,
      "rf": 6098,
      "_var85": 6099,
      "ed_": 6100,
      "cision": 6101,
      "mp": 6102,
      "ay": 6103,
      "_8": 6104,
      "_var86": 6105,
      "ory": 6106,
      "file": 6107,
      "_var87": 6108,
      "color": 6109,
      "_var82": 6110,
      "ist": 6111,
      "14": 6112,
      "ree": 6113,
      "_state": 6114,
      "_var88": 6115,
      "loss": 6116,
      "_var0": 6117,
      "csv": 6118,
      "(-": 6119,
      "app": 6120,
      "_var89": 6121,
      "ice": 6122,
      "setattr": 6123,
      "phi_1": 6124,
      "df_1": 6125,
      "map": 6126,
      "resul": 6127,
      "{'": 6128,
      "range": 6129,
      "figsize": 6130,
      "xt": 6131,
      "matrix": 6132,
      "old": 6133,
      "grid": 6134,
      "sum": 6135,
      "min": 6136,
      "random_state": 6137,
      "_var90": 6138,
      "_var93": 6139,
      "all": 6140,
      "labels": 6141,
      "_var94": 6142,
      "18": 6143,
      "ear": 6144,
      "ap": 6145,
      "----": 6146,
      "fil": 6147,
      "}'": 6148,
      "rat": 6149,
      "_csv": 6150,
      "lu": 6151,
      "_var95": 6152,
      "ull": 6153,
      "_var96": 6154,
      "train_test": 6155,
      "19": 6156,
      "ions": 6157,
      "read": 6158,
      "df_": 6159,
      "feature": 6160,
      "13": 6161,
      "_var97": 6162,
      "_var92": 6163,
      "_var98": 6164,
      "cv": 6165,
      "ion_": 6166,
      "error": 6167,
      "_var99": 6168,
      "eigh": 6169,
      "unc": 6170,
      "ense": 6171,
      "ho": 6172,
      "log": 6173,
      "train_test_split": 6174,
      "atch": 6175,
      "au": 6176,
      "gb": 6177,
      "17": 6178,
      "values": 6179,
      "_featu": 6180,
      "_var103": 6181,
      "orest": 6182,
      "append": 6183,
      "ver": 6184,
      "_var100": 6185,
      "_var104": 6186,
      "ast": 6187,
      "_var105": 6188,
      "izer": 6189,
      "caler": 6190,
      "_var106": 6191,
      "_var107": 6192,
      "24": 6193,
      "ind": 6194,
      "_coun": 6195,
      "ip": 6196,
      "nn": 6197,
      "low": 6198,
      "_var108": 6199,
      "lib": 6200,
      "ray": 6201,
      "_var109": 6202,
      "em": 6203,
      "ag": 6204,
      "ten": 6205,
      "clf": 6206,
      "tf": 6207,
      "_10": 6208,
      "ies": 6209,
      "_var102": 6210,
      "Con": 6211,
      "_func": 6212,
      "_var113": 6213,
      "_var110": 6214,
      "ame": 6215,
      "_var114": 6216,
      ":'": 6217,
      "get": 6218,
      "_var115": 6219,
      "cat": 6220,
      "_var116": 6221,
      "rate": 6222,
      "word": 6223,
      "str": 6224,
      "None": 6225,
      "_var117": 6226,
      "ut_": 6227,
      "Frame": 6228,
      "ateg": 6229,
      "[:,": 6230,
      "_var81": 6231,
      "figure": 6232,
      "_var118": 6233,
      "_value": 6234,
      "dataset": 6235,
      "ph": 6236,
      "fus": 6237,
      "tar": 6238,
      "img": 6239,
      "_var119": 6240,
      "cess": 6241,
      "DataFrame": 6242,
      "lr": 6243,
      "_var112": 6244,
      "'.": 6245,
      "ick": 6246,
      "Lo": 6247,
      "read_csv": 6248,
      "_b": 6249,
      "imat": 6250,
      "ial": 6251,
      "_9": 6252,
      "_var120": 6253,
      "lection": 6254,
      "row": 6255,
      "[]": 6256,
      "numpy": 6257,
      "_var123": 6258,
      "array": 6259,
      "xlabel": 6260,
      "df_0": 6261,
      "_var124": 6262,
      "_var91": 6263,
      "ylabel": 6264,
      "Rand": 6265,
      "_features": 6266,
      "Random": 6267,
      "_var125": 6268,
      "plotlib": 6269,
      "matplotlib": 6270,
      "23": 6271,
      "_var126": 6272,
      "model_0": 6273,
      "ob": 6274,
      "x_train": 6275,
      "_var127": 6276,
      "quar": 6277,
      "call": 6278,
      "ivation": 6279,
      "new": 6280,
      "_var128": 6281,
      "miss": 6282,
      "estimat": 6283,
      "inplace": 6284,
      "_name": 6285,
      "_var129": 6286,
      "Regression": 6287,
      "Age": 6288,
      "St": 6289,
      "format": 6290,
      "dt": 6291,
      "orm": 6292,
      "history": 6293,
      "resh": 6294,
      "ity": 6295,
      "ance": 6296,
      "_var101": 6297,
      "layers": 6298,
      "_var130": 6299,
      "idat": 6300,
      "gro": 6301,
      "_var122": 6302,
      "features": 6303,
      "cor": 6304,
      "_selection": 6305,
      "process": 6306,
      "c_": 6307,
      "_var133": 6308,
      "ing_": 6309,
      "64": 6310,
      "und": 6311,
      "De": 6312,
      "50": 6313,
      "by": 6314,
      "_var134": 6315,
      "cod": 6316,
      "ect": 6317,
      "pand": 6318,
      "ark": 6319,
      "_var137": 6320,
      "_var135": 6321,
      "_var136": 6322,
      "_var138": 6323,
      "_var139": 6324,
      "cores": 6325,
      "_var111": 6326,
      "inal": 6327,
      "otal": 6328,
      "s_1": 6329,
      "gend": 6330,
      "val_": 6331,
      "max_": 6332,
      "model_selection": 6333,
      "urv": 6334,
      "poch": 6335,
      "accuracy_score": 6336,
      "_var132": 6337,
      "_var140": 6338,
      "activation": 6339,
      "_var143": 6340,
      "sen": 6341,
      "ard": 6342,
      "Forest": 6343,
      "_var144": 6344,
      "ical": 6345,
      "ication": 6346,
      "count": 6347,
      "ost": 6348,
      "group": 6349,
      "else": 6350,
      "are": 6351,
      "the": 6352,
      "_var147": 6353,
      "_var121": 6354,
      "param": 6355,
      "_var145": 6356,
      "_var146": 6357,
      "put_": 6358,
      "_var148": 6359,
      "_var149": 6360,
      "32": 6361,
      "batch": 6362,
      "pandas": 6363,
      "confus": 6364,
      "mse": 6365,
      "ime": 6366,
      "preprocess": 6367,
      "Co": 6368,
      "_11": 6369,
      "_var142": 6370,
      "ive": 6371,
      "_var150": 6372,
      "linear": 6373,
      "no": 6374,
      "not": 6375,
      "42": 6376,
      "train_df": 6377,
      "ith": 6378,
      "ack": 6379,
      "ual": 6380,
      "df_train": 6381,
      "_var153": 6382,
      "ave": 6383,
      "x_test": 6384,
      "_var154": 6385,
      "_var131": 6386,
      "\\\\": 6387,
      "_counts": 6388,
      "_var155": 6389,
      "_var157": 6390,
      "_transform": 6391,
      "**": 6392,
      "_var158": 6393,
      "per": 6394,
      "_var156": 6395,
      "subplot": 6396,
      "_var159": 6397,
      "ep": 6398,
      "ff": 6399,
      "epoch": 6400,
      "er_": 6401,
      "_var152": 6402,
      "cols": 6403,
      "_to": 6404,
      "ces": 6405,
      "Ac": 6406,
      "_var160": 6407,
      "ion_matrix": 6408,
      "urviv": 6409,
      "text": 6410,
      "ir": 6411,
      "./": 6412,
      "Dense": 6413,
      "reg": 6414,
      "ary": 6415,
      "_var141": 6416,
      "istic": 6417,
      "_var163": 6418,
      "df_2": 6419,
      "26": 6420,
      "_var164": 6421,
      "bar": 6422,
      "results": 6423,
      "ategor": 6424,
      "appl": 6425,
      "acc": 6426,
      "_12": 6427,
      "_var167": 6428,
      "_var165": 6429,
      "30": 6430,
      "confusion_matrix": 6431,
      "sor": 6432,
      "_var166": 6433,
      "_var168": 6434,
      "ample": 6435,
      "urvived": 6436,
      "_var169": 6437,
      "idation": 6438,
      "pyplot": 6439,
      "fill": 6440,
      "Mo": 6441,
      "Regressor": 6442,
      "null": 6443,
      "_predict": 6444,
      "'../": 6445,
      "coder": 6446,
      "ale": 6447,
      "_var170": 6448,
      "_var162": 6449,
      "_var151": 6450,
      "que": 6451,
      "Train": 6452,
      "rice": 6453,
      "RandomForest": 6454,
      "gra": 6455,
      "uni": 6456,
      "28": 6457,
      "alph": 6458,
      "_var174": 6459,
      "ification": 6460,
      "_var173": 6461,
      "_var175": 6462,
      "_var177": 6463,
      "_var176": 6464,
      "_var178": 6465,
      "path": 6466,
      "_var179": 6467,
      "ck": 6468,
      "plo": 6469,
      "_var161": 6470,
      "vi": 6471,
      "_var180": 6472,
      "fon": 6473,
      "code": 6474,
      "_var172": 6475,
      "ormal": 6476,
      "train_data": 6477,
      "preprocessing": 6478,
      "Accuracy": 6479,
      "ile": 6480,
      "ses": 6481,
      "_var184": 6482,
      "_par": 6483,
      "_var183": 6484,
      "dir": 6485,
      "_var187": 6486,
      "transform": 6487,
      "iloc": 6488,
      "_var185": 6489,
      "dep": 6490,
      "arch": 6491,
      "ext": 6492,
      "value_counts": 6493,
      "_var186": 6494,
      "r2": 6495,
      "cm": 6496,
      "_values": 6497,
      "01": 6498,
      "Survived": 6499,
      "_var188": 6500,
      "tit": 6501,
      "y_0": 6502,
      "_var189": 6503,
      "_var171": 6504,
      "anic": 6505,
      "nel": 6506,
      "relu": 6507,
      "optim": 6508,
      "bors": 6509,
      "time": 6510,
      "legend": 6511,
      "Log": 6512,
      "input_": 6513,
      "knn": 6514,
      "2D": 6515,
      "_var182": 6516,
      "ew": 6517,
      "filename": 6518,
      "i_0": 6519,
      "_var190": 6520,
      "alpha": 6521,
      "sort": 6522,
      "com": 6523,
      "fit_transform": 6524,
      "test_size": 6525,
      "we": 6526,
      "astype": 6527,
      "target": 6528,
      "_var194": 6529,
      "gen": 6530,
      "_var193": 6531,
      "SE": 6532,
      "Model": 6533,
      "_var195": 6534,
      "Test": 6535,
      "''": 6536,
      "La": 6537,
      "_var197": 6538,
      "_var198": 6539,
      "_squar": 6540,
      "_var181": 6541,
      "_var196": 6542,
      "x_0": 6543,
      "_var199": 6544,
      "rib": 6545,
      "flow": 6546,
      "inf": 6547,
      "auc": 6548,
      "d_": 6549,
      "dataset_": 6550,
      "ins": 6551,
      "ken": 6552,
      "lat": 6553,
      "test_df": 6554,
      "X_": 6555,
      "comp": 6556,
      "_var192": 6557,
      "_var200": 6558,
      "agg": 6559,
      "df_test": 6560,
      "Scaler": 6561,
      "_var204": 6562,
      "atter": 6563,
      "_13": 6564,
      "Se": 6565,
      "_var205": 6566,
      "Price": 6567,
      "SV": 6568,
      "load": 6569,
      "_var203": 6570,
      "En": 6571,
      "CV": 6572,
      "_var207": 6573,
      "best_": 6574,
      "_var206": 6575,
      "dist": 6576,
      "_var208": 6577,
      "_var191": 6578,
      "rage": 6579,
      "Tree": 6580,
      "fillna": 6581,
      "--------": 6582,
      "_var209": 6583,
      "AT": 6584,
      "amples": 6585,
      "mission": 6586,
      "X_train_0": 6587,
      "ker": 6588,
      "apply": 6589,
      "ber": 6590,
      "ta": 6591,
      "X_0": 6592,
      "_var202": 6593,
      "estimators": 6594,
      "_squared_": 6595,
      "mon": 6596,
      "ings": 6597,
      "f_": 6598,
      "_var210": 6599,
      "depth": 6600,
      "mean_squared_": 6601,
      "ict_": 6602,
      "ipel": 6603,
      "_var214": 6604,
      "Coun": 6605,
      "_var213": 6606,
      "Pred": 6607,
      "_var215": 6608,
      "predictions": 6609,
      "_var201": 6610,
      "sol": 6611,
      "ross": 6612,
      "ly": 6613,
      "output": 6614,
      "classification": 6615,
      "isnull": 6616,
      "_var217": 6617,
      "xgb": 6618,
      "ipeline": 6619,
      "Im": 6620,
      "_var216": 6621,
      "unique": 6622,
      "_var218": 6623,
      "27": 6624,
      "able": 6625,
      "Decision": 6626,
      "Logistic": 6627,
      "Line": 6628,
      "_var219": 6629,
      "av": 6630,
      "ategorical": 6631,
      "tensor": 6632,
      "_14": 6633,
      "idth": 6634,
      "_param": 6635,
      "titanic": 6636,
      "mean_squared_error": 6637,
      "cent": 6638,
      "_valid": 6639,
      "f1": 6640,
      "_var220": 6641,
      "tsize": 6642,
      "_var212": 6643,
      "Bo": 6644,
      "test_data": 6645,
      "tree": 6646,
      "prediction": 6647,
      "scaler": 6648,
      "ign": 6649,
      "reshape": 6650,
      "_var224": 6651,
      "fontsize": 6652,
      "ipy": 6653,
      "_var225": 6654,
      "scatter": 6655,
      "'\\": 6656,
      "models": 6657,
      "den": 6658,
      "_var223": 6659,
      "precision": 6660,
      "round": 6661,
      "loat": 6662,
      "_var227": 6663,
      "_var211": 6664,
      "data_0": 6665,
      "_var226": 6666,
      "sm": 6667,
      "item": 6668,
      "ult": 6669,
      "date": 6670,
      "_var228": 6671,
      ":.": 6672,
      "jo": 6673,
      "_var229": 6674,
      "corr": 6675,
      "Linear": 6676,
      "n_estimators": 6677,
      "batch_size": 6678,
      "model_": 6679,
      "plot_": 6680,
      "model_1": 6681,
      "caled": 6682,
      "Val": 6683,
      "_pro": 6684,
      "_var230": 6685,
      "99": 6686,
      "_var222": 6687,
      "ST": 6688,
      "dum": 6689,
      "_path": 6690,
      "df_3": 6691,
      "_var221": 6692,
      "groupby": 6693,
      "_var233": 6694,
      "andard": 6695,
      "'/": 6696,
      "total": 6697,
      "_var234": 6698,
      "da": 6699,
      "use": 6700,
      "1_0": 6701,
      "od": 6702,
      "_var236": 6703,
      "_var235": 6704,
      "_var237": 6705,
      "Id": 6706,
      "desc": 6707,
      "_var238": 6708,
      "quen": 6709,
      "with": 6710,
      "_report": 6711,
      "emb": 6712,
      "idx": 6713,
      "linear_model": 6714,
      "kernel": 6715,
      "float": 6716,
      "_var239": 6717,
      "In": 6718,
      "coe": 6719,
      "_var232": 6720,
      "tensorflow": 6721,
      "ters": 6722,
      "art": 6723,
      "ment": 6724,
      "las": 6725,
      "eight": 6726,
      "_var240": 6727,
      "_15": 6728,
      "column": 6729,
      "y_test_0": 6730,
      "ren": 6731,
      "replace": 6732,
      "Predict": 6733,
      "_var231": 6734,
      "svm": 6735,
      "y_train_0": 6736,
      "11": 6737,
      "mble": 6738,
      "osit": 6739,
      "_var243": 6740,
      "_var244": 6741,
      "_var245": 6742,
      "_var246": 6743,
      "_var247": 6744,
      "epochs": 6745,
      "dis": 6746,
      ":]": 6747,
      "info": 6748,
      "recall": 6749,
      "ca": 6750,
      "_var248": 6751,
      "join": 6752,
      "feature_": 6753,
      "Label": 6754,
      "Score": 6755,
      "_var249": 6756,
      "GB": 6757,
      "X_test_0": 6758,
      "thon": 6759,
      "pt": 6760,
      "_var242": 6761,
      "concat": 6762,
      "_scores": 6763,
      "iter": 6764,
      "_var250": 6765,
      "75": 6766,
      "ensemble": 6767,
      "_title": 6768,
      "du": 6769,
      "40": 6770,
      "ight": 6771,
      "LogisticRegression": 6772,
      "axes": 6773,
      "_list": 6774,
      "classification_report": 6775,
      "fir": 6776,
      "_var241": 6777,
      "_var253": 6778,
      "sample": 6779,
      "run": 6780,
      "DecisionTree": 6781,
      "_var255": 6782,
      "stat": 6783,
      "RandomForestClassifier": 6784,
      "copy": 6785,
      "mer": 6786,
      "_var254": 6787,
      "mies": 6788,
      "Me": 6789,
      "lean": 6790,
      "_var256": 6791,
      "Max": 6792,
      "lin": 6793,
      "MA": 6794,
      "_var258": 6795,
      "_var257": 6796,
      "var": 6797,
      ")'": 6798,
      "KN": 6799,
      "22": 6800,
      "max_depth": 6801,
      "Fare": 6802,
      "_var259": 6803,
      "Standard": 6804,
      "60": 6805,
      "_var252": 6806,
      "cross": 6807,
      "ool": 6808,
      "Conv": 6809,
      "_index": 6810,
      "play": 6811,
      "_var251": 6812,
      "ices": 6813,
      "split": 6814,
      "_var260": 6815,
      "orn": 6816,
      "_samples": 6817,
      "images": 6818,
      "Emb": 6819,
      "result": 6820,
      "cmap": 6821,
      "validation": 6822,
      "normal": 6823,
      "_var263": 6824,
      "comb": 6825,
      "back": 6826,
      "width": 6827,
      "_var264": 6828,
      "box": 6829,
      "_var265": 6830,
      "90": 6831,
      "Sear": 6832,
      "year": 6833,
      "_var266": 6834,
      "Search": 6835,
      "_var268": 6836,
      "_model_0": 6837,
      "_var267": 6838,
      "ents": 6839,
      "erat": 6840,
      "oc": 6841,
      "it_": 6842,
      "x_1": 6843,
      "data_": 6844,
      "_var262": 6845,
      "aborn": 6846,
      "_var269": 6847,
      "ant": 6848,
      "solut": 6849,
      "seaborn": 6850,
      "arg": 6851,
      "_var270": 6852,
      "gth": 6853,
      "StandardScaler": 6854,
      "Grid": 6855,
      "mode": 6856,
      "Boost": 6857,
      "45": 6858,
      "ft": 6859,
      "2_0": 6860,
      "{}": 6861,
      "IN": 6862,
      ")]": 6863,
      "_grid": 6864,
      "_var261": 6865,
      ")(": 6866,
      "_con": 6867,
      "subplots": 6868,
      "_var273": 6869,
      "dict": 6870,
      "key": 6871,
      "Encoder": 6872,
      "clu": 6873,
      "_var275": 6874,
      "200": 6875,
      "warn": 6876,
      "ask": 6877,
      "gh": 6878,
      "_var274": 6879,
      "neigh": 6880,
      "data_1": 6881,
      "mean_": 6882,
      "====": 6883,
      "Sale": 6884,
      "_var276": 6885,
      "_ma": 6886,
      "_var277": 6887,
      "Class": 6888,
      "_var278": 6889,
      "obj": 6890,
      "num_": 6891,
      "_df_0": 6892,
      "ent_": 6893,
      "eval": 6894,
      "_var272": 6895,
      "SearchCV": 6896,
      "bose": 6897,
      "numer": 6898,
      "Y_train": 6899,
      "verbose": 6900,
      "_var271": 6901,
      "_20": 6902,
      "warnings": 6903,
      "_var279": 6904,
      "optimizer": 6905,
      "ib": 6906,
      "yp": 6907,
      "i_1": 6908,
      "2f": 6909,
      "_var280": 6910,
      "_reg": 6911,
      "ud": 6912,
      "try": 6913,
      "estimator": 6914,
      "_var283": 6915,
      "final": 6916,
      "nb": 6917,
      "_var285": 6918,
      "quent": 6919,
      "_m": 6920,
      "aggle": 6921,
      "train_0": 6922,
      "Featu": 6923,
      "_var284": 6924,
      "submission": 6925,
      "33": 6926,
      "cross_val": 6927,
      "tex": 6928,
      "rmse": 6929,
      "scores": 6930,
      "_var286": 6931,
      "_var282": 6932,
      "ct_": 6933,
      "_var288": 6934,
      "ID": 6935,
      "_var287": 6936,
      "ector": 6937,
      "_var281": 6938,
      "classifier": 6939,
      "_scaled": 6940,
      "arked": 6941,
      "80": 6942,
      "yle": 6943,
      "ipython": 6944,
      "med": 6945,
      "get_ipython": 6946,
      "roc_": 6947,
      "df_4": 6948,
      "_var289": 6949,
      "_id": 6950,
      "_sub": 6951,
      "medi": 6952,
      "Sex": 6953,
      "y_t": 6954,
      "_var290": 6955,
      "token": 6956,
      "hat": 6957,
      "kaggle": 6958,
      "_S": 6959,
      "lim": 6960,
      "sort_values": 6961,
      "Type": 6962,
      "average": 6963,
      "_var293": 6964,
      "lect": 6965,
      "_var294": 6966,
      "_var295": 6967,
      "SVC": 6968,
      "eatmap": 6969,
      "s_2": 6970,
      "_var291": 6971,
      "_var292": 6972,
      "_var297": 6973,
      "_var296": 6974,
      "_var298": 6975,
      "Num": 6976,
      "_search": 6977,
      "_var300": 6978,
      "_var299": 6979,
      "sq": 6980,
      "raw": 6981,
      "ase": 6982,
      "io": 6983,
      "day": 6984,
      "job": 6985,
      "MSE": 6986,
      "model_2": 6987,
      "layer": 6988,
      "sp": 6989,
      "vel": 6990,
      "35": 6991,
      "quential": 6992,
      "orch": 6993,
      "std": 6994,
      "encode": 6995,
      "_var304": 6996,
      "month": 6997,
      "),": 6998,
      "_var303": 6999,
      "go": 7000,
      "roc_auc": 7001,
      "xtick": 7002,
      "heatmap": 7003,
      "_var305": 7004,
      "_var302": 7005,
      "_var301": 7006,
      "frame": 7007,
      "urve": 7008,
      "ple": 7009,
      "Embarked": 7010,
      "_var307": 7011,
      "_var308": 7012,
      "_var306": 7013,
      "95": 7014,
      "Mean": 7015,
      "_var309": 7016,
      "Sequential": 7017,
      "Pool": 7018,
      "eries": 7019,
      "_var310": 7020,
      "70": 7021,
      "RE": 7022,
      "SalePrice": 7023,
      "_in": 7024,
      "x_2": 7025,
      "ing_rate": 7026,
      "ros": 7027,
      "step": 7028,
      "Drop": 7029,
      "training": 7030,
      "ange": 7031,
      "describ": 7032,
      "edd": 7033,
      "inter": 7034,
      "_var313": 7035,
      "_var315": 7036,
      "merge": 7037,
      "_var314": 7038,
      "_16": 7039,
      ")\\": 7040,
      "_var312": 7041,
      "_var316": 7042,
      "view": 7043,
      "valid": 7044,
      "Date": 7045,
      "_var311": 7046,
      "describe": 7047,
      "RO": 7048,
      "ypes": 7049,
      "_class": 7050,
      "af": 7051,
      "65": 7052,
      "_var317": 7053,
      "temp": 7054,
      "_pre": 7055,
      "eights": 7056,
      "_var318": 7057,
      "rt": 7058,
      "absolut": 7059,
      "48": 7060,
      "fold": 7061,
      "Conv2D": 7062,
      "uff": 7063,
      "LinearRegression": 7064,
      "_var320": 7065,
      "_var319": 7066,
      "lue": 7067,
      "Dropout": 7068,
      "78": 7069,
      "learning_rate": 7070,
      "nd": 7071,
      "Act": 7072,
      "pi": 7073,
      "eighbors": 7074,
      "GridSearchCV": 7075,
      "data_2": 7076,
      "smt": 7077,
      "Ad": 7078,
      "set_title": 7079,
      "datet": 7080,
      "ances": 7081,
      "all_data": 7082,
      "ral": 7083,
      "_var324": 7084,
      "_var321": 7085,
      "_var323": 7086,
      "_var325": 7087,
      "_clf": 7088,
      "predict_": 7089,
      "Ex": 7090,
      "rows": 7091,
      "i_2": 7092,
      "ise": 7093,
      "x_": 7094,
      "_var322": 7095,
      "_var326": 7096,
      "ek": 7097,
      "zer": 7098,
      "neighbors": 7099,
      "X_1": 7100,
      "_var327": 7101,
      "_var328": 7102,
      "Bsmt": 7103,
      "top": 7104,
      "r2_score": 7105,
      "length": 7106,
      "ales": 7107,
      "mark": 7108,
      "ropy": 7109,
      "_var329": 7110,
      "_var330": 7111,
      "ian": 7112,
      "_names": 7113,
      "my": 7114,
      "asc": 7115,
      "best_param": 7116,
      "lasses": 7117,
      "bin": 7118,
      "dummies": 7119,
      "ized": 7120,
      "ending": 7121,
      "datetime": 7122,
      "annot": 7123,
      "rea": 7124,
      "regress": 7125,
      "_var333": 7126,
      "05": 7127,
      "g_": 7128,
      "rr": 7129,
      "text_": 7130,
      "y_val": 7131,
      "_var334": 7132,
      "Name": 7133,
      "_var335": 7134,
      "_var331": 7135,
      "categorical": 7136,
      "_var332": 7137,
      "_word": 7138,
      "98": 7139,
      "ategory": 7140,
      "_var336": 7141,
      "reshold": 7142,
      "DecisionTreeClassifier": 7143,
      "self_2": 7144,
      "boost": 7145,
      "_cv": 7146,
      "68": 7147,
      "_var337": 7148,
      "ameters": 7149,
      "ume": 7150,
      "_var338": 7151,
      "target_": 7152,
      "ax_0": 7153,
      "cr": 7154,
      "sent": 7155,
      "imput": 7156,
      "y_pred_0": 7157,
      "KNeighbors": 7158,
      "_C": 7159,
      "y_1": 7160,
      "_var339": 7161,
      "_var340": 7162,
      "mean_absolut": 7163,
      "Pclass": 7164,
      "open": 7165,
      "ON": 7166,
      "ger": 7167,
      "c_0": 7168,
      "torch": 7169,
      "ascending": 7170,
      "_var341": 7171,
      "e_error": 7172,
      "_var343": 7173,
      "_per": 7174,
      "tick": 7175,
      "words": 7176,
      "uffle": 7177,
      "38": 7178,
      "df_5": 7179,
      "predicted": 7180,
      "_var344": 7181,
      "_var345": 7182,
      "median": 7183,
      "_var342": 7184,
      "Pro": 7185,
      "{}'": 7186,
      "_var346": 7187,
      "_var348": 7188,
      "ight_": 7189,
      "_var347": 7190,
      "34": 7191,
      "proba": 7192,
      "cross_val_score": 7193,
      "_var349": 7194,
      "test_0": 7195,
      "_var350": 7196,
      "ily": 7197,
      "ork": 7198,
      "ust": 7199,
      "Title": 7200,
      "_18": 7201,
      "hue": 7202,
      "EN": 7203,
      "uc": 7204,
      "_sv": 7205,
      "aut": 7206,
      "mask": 7207,
      "cale": 7208,
      "_var352": 7209,
      "_var353": 7210,
      "its": 7211,
      "_var351": 7212,
      "_D": 7213,
      "_var354": 7214,
      "_var355": 7215,
      "layout": 7216,
      "'}": 7217,
      "ization": 7218,
      "compile": 7219,
      "mean_absolute_error": 7220,
      "_17": 7221,
      "scor": 7222,
      "_func0": 7223,
      "_var356": 7224,
      "Ch": 7225,
      "Gra": 7226,
      "Training": 7227,
      "_var357": 7228,
      "come": 7229,
      "_predictions": 7230,
      "rect": 7231,
      "ms": 7232,
      "_var358": 7233,
      "scoring": 7234,
      "latten": 7235,
      "_var359": 7236,
      "Number": 7237,
      "Image": 7238,
      "_var360": 7239,
      "ain": 7240,
      "object": 7241,
      "_to_": 7242,
      "kind": 7243,
      "_type": 7244,
      "embedd": 7245,
      "net": 7246,
      "sqrt": 7247,
      "_text": 7248,
      "lt": 7249,
      "Y_test": 7250,
      "The": 7251,
      "NB": 7252,
      "f1_score": 7253,
      "pol": 7254,
      "_var361": 7255,
      "_var362": 7256,
      "_var363": 7257,
      "ution": 7258,
      "adding": 7259,
      "Total": 7260,
      "ster": 7261,
      "_var365": 7262,
      "_var364": 7263,
      "Pre": 7264,
      "_rf": 7265,
      "encoder": 7266,
      "_data_0": 7267,
      "Count": 7268,
      "_var366": 7269,
      "last": 7270,
      "be": 7271,
      "_var367": 7272,
      "128": 7273,
      "500": 7274,
      "pec": 7275,
      "min_samples": 7276,
      "_var368": 7277,
      "param_grid": 7278,
      "des": 7279,
      "_var369": 7280,
      "reset_index": 7281,
      "dtypes": 7282,
      "_var370": 7283,
      "37": 7284,
      "96": 7285,
      "gic": 7286,
      "_g": 7287,
      "grid_search": 7288,
      "anc": 7289,
      "get_dummies": 7290,
      "own": 7291,
      "1000": 7292,
      "KNeighborsClassifier": 7293,
      "lation": 7294,
      "_time": 7295,
      "mary": 7296,
      "cv2": 7297,
      "ds": 7298,
      "_var373": 7299,
      "_var371": 7300,
      "_var372": 7301,
      "ml": 7302,
      "_dict": 7303,
      "sy": 7304,
      "price": 7305,
      "missing": 7306,
      "ach": 7307,
      "Predicted": 7308,
      "_var375": 7309,
      "_var374": 7310,
      "lasso": 7311,
      "rot": 7312,
      "_var376": 7313,
      "Err": 7314,
      "X_train_1": 7315,
      "padding": 7316,
      "_col": 7317,
      "to_csv": 7318,
      "using": 7319,
      "evalu": 7320,
      "_var378": 7321,
      "_var377": 7322,
      "ite": 7323,
      "_var379": 7324,
      "SF": 7325,
      "cre": 7326,
      "_P": 7327,
      "_magic": 7328,
      "indices": 7329,
      "CA": 7330,
      "erator": 7331,
      "Col": 7332,
      "dient": 7333,
      "21": 7334,
      "36": 7335,
      "Sp": 7336,
      "XGB": 7337,
      "arage": 7338,
      "_var380": 7339,
      "97": 7340,
      "seed": 7341,
      "pping": 7342,
      "Year": 7343,
      "255": 7344,
      "countplot": 7345,
      "run_": 7346,
      "fidf": 7347,
      "_n": 7348,
      "_le": 7349,
      "ridge": 7350,
      "bins": 7351,
      "_var381": 7352,
      "train_1": 7353,
      "_var382": 7354,
      "_var383": 7355,
      "stats": 7356,
      "mae": 7357,
      "_var384": 7358,
      "Error": 7359,
      "ok": 7360,
      "_var385": 7361,
      "LabelEncoder": 7362,
      "display": 7363,
      "X_val": 7364,
      "imshow": 7365,
      "ER": 7366,
      "zip": 7367,
      "to_": 7368,
      "shuffle": 7369,
      "util": 7370,
      "exp": 7371,
      "!=": 7372,
      "_y": 7373,
      "type": 7374,
      "_var386": 7375,
      "importances": 7376,
      "full": 7377,
      "abin": 7378,
      "x_3": 7379,
      "save": 7380,
      "twe": 7381,
      "_df_1": 7382,
      "ket": 7383,
      "params": 7384,
      "blue": 7385,
      "_var387": 7386,
      "94": 7387,
      "Area": 7388,
      "roc": 7389,
      "_var388": 7390,
      "our": 7391,
      "cur": 7392,
      "MaxPool": 7393,
      "Normal": 7394,
      "first": 7395,
      "combin": 7396,
      "_l": 7397,
      "assen": 7398,
      "fe": 7399,
      "cont": 7400,
      "Garage": 7401,
      "_var389": 7402,
      "{:.": 7403,
      "_curve": 7404,
      "_var390": 7405,
      "lower": 7406,
      "****": 7407,
      "Mat": 7408,
      "point": 7409,
      "'%": 7410,
      "_dataset": 7411,
      "cast": 7412,
      "filenames": 7413,
      "_count": 7414,
      "_fold": 7415,
      "df1": 7416,
      "_var392": 7417,
      "_var391": 7418,
      "_var394": 7419,
      "_var393": 7420,
      "RandomForestRegressor": 7421,
      "ive_": 7422,
      "_var395": 7423,
      "air": 7424,
      "cept": 7425,
      "auss": 7426,
      "clean": 7427,
      "Per": 7428,
      ".'": 7429,
      "<=": 7430,
      "X_2": 7431,
      "_var397": 7432,
      "greg": 7433,
      "_var398": 7434,
      ".\\": 7435,
      "No": 7436,
      "xticks": 7437,
      "_var396": 7438,
      "left": 7439,
      "eta": 7440,
      "itial": 7441,
      "stop": 7442,
      "ignore": 7443,
      "dtype": 7444,
      "_var400": 7445,
      "numeric": 7446,
      "stem": 7447,
      "y_true": 7448,
      "_var399": 7449,
      "encoded": 7450,
      "df_6": 7451,
      "Res": 7452,
      "input_shape": 7453,
      "_var405": 7454,
      "RA": 7455,
      "_var401": 7456,
      "sig": 7457,
      "_var402": 7458,
      "parameters": 7459,
      "_var404": 7460,
      "_cat": 7461,
      "trans": 7462,
      "66": 7463,
      "_var403": 7464,
      "umerate": 7465,
      "make": 7466,
      "enumerate": 7467,
      "----------------": 7468,
      "_var406": 7469,
      "Fold": 7470,
      "callback": 7471,
      "number": 7472,
      "importance": 7473,
      "char": 7474,
      "77": 7475,
      "line_magic": 7476,
      "run_line_magic": 7477,
      "_T": 7478,
      "rotation": 7479,
      "_var408": 7480,
      "_var407": 7481,
      "_cols": 7482,
      "model_3": 7483,
      "data_3": 7484,
      "arange": 7485,
      "Al": 7486,
      "aussian": 7487,
      "ities": 7488,
      "_var410": 7489,
      "dirname": 7490,
      ":\\": 7491,
      "_var409": 7492,
      "amily": 7493,
      "vect": 7494,
      "self_3": 7495,
      "RF": 7496,
      "gender": 7497,
      "relation": 7498,
      "sed": 7499,
      "dev": 7500,
      "m_": 7501,
      "clf_0": 7502,
      "arget": 7503,
      "//": 7504,
      "ectorizer": 7505,
      "orig": 7506,
      "pick": 7507,
      "summary": 7508,
      "jobs": 7509,
      "emp": 7510,
      "start": 7511,
      "_19": 7512,
      "boxplot": 7513,
      "_var411": 7514,
      "_var413": 7515,
      "threshold": 7516,
      "_full": 7517,
      "_var412": 7518,
      "_var415": 7519,
      "000": 7520,
      "Value": 7521,
      "_var414": 7522,
      "names": 7523,
      "tp": 7524,
      "result_": 7525,
      "unction": 7526,
      "opt": 7527,
      "OR": 7528,
      "assenger": 7529,
      "_feature": 7530,
      "upper": 7531,
      "_var416": 7532,
      "ass": 7533,
      "_var418": 7534,
      "85": 7535,
      "_var417": 7536,
      "che": 7537,
      "n_jobs": 7538,
      "height": 7539,
      "Gradient": 7540,
      "_tree": 7541,
      "preds": 7542,
      "_var420": 7543,
      "clude": 7544,
      "work": 7545,
      "_var419": 7546,
      "='": 7547,
      "filter": 7548,
      "ng": 7549,
      "iable": 7550,
      "ositive": 7551,
      "Validation": 7552,
      "wh": 7553,
      "train_2": 7554,
      "clo": 7555,
      "ong": 7556,
      "weight": 7557,
      "outli": 7558,
      "Rate": 7559,
      "tpr": 7560,
      "_var421": 7561,
      "count_": 7562,
      "fpr": 7563,
      "sentropy": 7564,
      "rossentropy": 7565,
      "_var424": 7566,
      "AU": 7567,
      "_var422": 7568,
      "_var423": 7569,
      "Loss": 7570,
      "Dist": 7571,
      "_var425": 7572,
      "CH": 7573,
      "off": 7574,
      "house": 7575,
      "Min": 7576,
      "Feature": 7577,
      "_var426": 7578,
      "ient": 7579,
      "_var427": 7580,
      "fit_": 7581,
      "quences": 7582,
      "y_pred_": 7583,
      "AR": 7584,
      "alet": 7585,
      "lgb": 7586,
      "_var428": 7587,
      "_results": 7588,
      "val_loss": 7589,
      "_var430": 7590,
      "combined": 7591,
      "_var429": 7592,
      "alette": 7593,
      "X_valid": 7594,
      "pipeline": 7595,
      "Confus": 7596,
      "best_params_": 7597,
      "same": 7598,
      "_label": 7599,
      "yes": 7600,
      "ld": 7601,
      "'{": 7602,
      "0001": 7603,
      "fore": 7604,
      "29": 7605,
      "utils": 7606,
      "ert": 7607,
      "_var433": 7608,
      "squar": 7609,
      "_var431": 7610,
      "Matrix": 7611,
      "_test_0": 7612,
      "output_": 7613,
      "lock": 7614,
      "xg": 7615,
      "_var434": 7616,
      "dropna": 7617,
      "dim": 7618,
      "roc_auc_score": 7619,
      "_var435": 7620,
      "_var432": 7621,
      "ular": 7622,
      "44": 7623,
      "i_3": 7624,
      "_var436": 7625,
      "ence": 7626,
      "callbacks": 7627,
      "Y_pred": 7628,
      "cy": 7629,
      "housing": 7630,
      "Boosting": 7631,
      "_var437": 7632,
      "_var438": 7633,
      "ing2D": 7634,
      "y_train_1": 7635,
      "sl": 7636,
      "avg": 7637,
      "conv": 7638,
      ">=": 7639,
      "stri": 7640,
      "df2": 7641,
      "df_7": 7642,
      "_var440": 7643,
      "Confusion": 7644,
      "ated": 7645,
      "graph": 7646,
      "ia": 7647,
      "_var439": 7648,
      "4f": 7649,
      "iris": 7650,
      "ffic": 7651,
      "X_test_1": 7652,
      "ls": 7653,
      "predict_proba": 7654,
      "RMSE": 7655,
      "AL": 7656,
      "out_": 7657,
      "____": 7658,
      "titanic_df": 7659,
      "logreg": 7660,
      "weights": 7661,
      "Cabin": 7662,
      "Net": 7663,
      "son": 7664,
      "Le": 7665,
      "_var443": 7666,
      "evaluate": 7667,
      "_var441": 7668,
      "67": 7669,
      "_test_": 7670,
      "_var445": 7671,
      "##": 7672,
      "nan": 7673,
      "_var444": 7674,
      "_var442": 7675,
      "kn": 7676,
      "raction": 7677,
      "check": 7678,
      "39": 7679,
      "_var446": 7680,
      "lag": 7681,
      "pos": 7682,
      "_prob": 7683,
      "izers": 7684,
      "_var447": 7685,
      "_var448": 7686,
      "KFold": 7687,
      "%'": 7688,
      "X_train_": 7689,
      "ME": 7690,
      "_var449": 7691,
      "Com": 7692,
      "55": 7693,
      "Passenger": 7694,
      "_var450": 7695,
      "Sh": 7696,
      "do": 7697,
      "category": 7698,
      "argmax": 7699,
      "_prediction": 7700,
      "-'": 7701,
      "style": 7702,
      "88": 7703,
      "barplot": 7704,
      "DE": 7705,
      "_ch": 7706,
      "_var451": 7707,
      "_var453": 7708,
      "_words": 7709,
      "_forest": 7710,
      "_var454": 7711,
      "_var452": 7712,
      "order": 7713,
      "indow": 7714,
      "ribution": 7715,
      "_var455": 7716,
      "firmed": 7717,
      "_stat": 7718,
      "true": 7719,
      "inputs": 7720,
      "label_": 7721,
      "_cor": 7722,
      "mt": 7723,
      "precision_score": 7724,
      "recall_score": 7725,
      "_var456": 7726,
      "inline": 7727,
      "_train_0": 7728,
      "_var457": 7729,
      "Qual": 7730,
      "stack": 7731,
      "_var458": 7732,
      "_crossentropy": 7733,
      "_std": 7734,
      "inst": 7735,
      "moun": 7736,
      "gg": 7737,
      "zeros": 7738,
      "Time": 7739,
      "ft_": 7740,
      "_de": 7741,
      "review": 7742,
      "_var460": 7743,
      "47": 7744,
      "Un": 7745,
      "verage": 7746,
      "_weight": 7747,
      "_var459": 7748,
      "oft": 7749,
      "m_0": 7750,
      "vector": 7751,
      "any": 7752,
      "001": 7753,
      "gd": 7754,
      "abs": 7755,
      "NN": 7756,
      "Batch": 7757,
      "_var463": 7758,
      "))": 7759,
      "_mean": 7760,
      "_var461": 7761,
      "feat": 7762,
      "distplot": 7763,
      "Pipeline": 7764,
      "_var464": 7765,
      "_var462": 7766,
      "_clean": 7767,
      "PassengerId": 7768,
      "ded": 7769,
      "_var465": 7770,
      "room": 7771,
      "_var468": 7772,
      "CO": 7773,
      "ish": 7774,
      "regressor": 7775,
      "_categorical": 7776,
      "hot": 7777,
      "_var466": 7778,
      "y_test_1": 7779,
      "ax_1": 7780,
      "x_4": 7781,
      "_var467": 7782,
      "_func1": 7783,
      "_loss": 7784,
      "========": 7785,
      "Features": 7786,
      "omial": 7787,
      "_var469": 7788,
      "aly": 7789,
      "Best": 7790,
      "Series": 7791,
      "3f": 7792,
      "_var470": 7793,
      "IZ": 7794,
      "_dum": 7795,
      "select": 7796,
      "ltk": 7797,
      "whe": 7798,
      "r_0": 7799,
      "nltk": 7800,
      "LA": 7801,
      "ulti": 7802,
      "right": 7803,
      "y_2": 7804,
      "Par": 7805,
      "tolist": 7806,
      "tered": 7807,
      "_var471": 7808,
      "ell": 7809,
      "_var472": 7810,
      "31": 7811,
      "_var473": 7812,
      "_final": 7813,
      "_var474": 7814,
      "0000": 7815,
      "_var475": 7816,
      "ont": 7817,
      "marker": 7818,
      "_h": 7819,
      "centage": 7820,
      "F1": 7821,
      "_var477": 7822,
      "yhat": 7823,
      "_classifier": 7824,
      "_df_2": 7825,
      "ration": 7826,
      "_var476": 7827,
      "ition": 7828,
      "ligh": 7829,
      "self_4": 7830,
      "ight_layout": 7831,
      "tight_layout": 7832,
      "coef_": 7833,
      "x_train_0": 7834,
      "_var478": 7835,
      "_file": 7836,
      "y_pred_1": 7837,
      "_pipeline": 7838,
      "idge": 7839,
      "df_8": 7840,
      "neg": 7841,
      "ative": 7842,
      "fig_0": 7843,
      "slice": 7844,
      "_var479": 7845,
      "_var480": 7846,
      "LR": 7847,
      "pect": 7848,
      "Gen": 7849,
      "uil": 7850,
      "Actual": 7851,
      "ax1": 7852,
      "_train_": 7853,
      "lab": 7854,
      "cep": 7855,
      "items": 7856,
      "date_": 7857,
      "auto": 7858,
      "ens": 7859,
      "Normalization": 7860,
      "OT": 7861,
      "_var481": 7862,
      "Out": 7863,
      "ION": 7864,
      "_matrix": 7865,
      "'#": 7866,
      "R2": 7867,
      "over": 7868,
      "Vectorizer": 7869,
      "LST": 7870,
      "ude": 7871,
      "dif": 7872,
      "..": 7873,
      "IZE": 7874,
      "X_train_2": 7875,
      "ravel": 7876,
      "rc": 7877,
      "_var484": 7878,
      "_var482": 7879,
      "kde": 7880,
      "_var483": 7881,
      "_var485": 7882,
      "palette": 7883,
      "move": 7884,
      "oth": 7885,
      "Reg": 7886,
      "256": 7887,
      "test_1": 7888,
      "_num": 7889,
      "_var486": 7890,
      "linewidth": 7891,
      "max_features": 7892,
      "req": 7893,
      "et_": 7894,
      "LE": 7895,
      "quence": 7896,
      "pen": 7897,
      "vs": 7898,
      "set_ylabel": 7899,
      "GradientBoosting": 7900,
      "colors": 7901,
      "filtered": 7902,
      "scale": 7903,
      "_with": 7904,
      "_leaf": 7905,
      "One": 7906,
      "kernel_size": 7907,
      "amma": 7908,
      "_var487": 7909,
      "car": 7910,
      "binary": 7911,
      "abet": 7912,
      "ht": 7913,
      "senten": 7914,
      "_var488": 7915,
      "Average": 7916,
      "coef": 7917,
      "Fin": 7918,
      "train_y": 7919,
      "where": 7920,
      "datasets": 7921,
      "roc_curve": 7922,
      "validation_data": 7923,
      "ness": 7924,
      "Ridge": 7925,
      "init_": 7926,
      "Flatten": 7927,
      "race": 7928,
      "imple": 7929,
      "eps": 7930,
      "numerical": 7931,
      "_var489": 7932,
      "decision": 7933,
      "_var490": 7934,
      "model_4": 7935,
      "Gaussian": 7936,
      "ytick": 7937,
      "LSTM": 7938,
      "46": 7939,
      "Sib": 7940,
      "_trans": 7941,
      "Ro": 7942,
      "su": 7943,
      "_sequences": 7944,
      "bi": 7945,
      "_x": 7946,
      "Mi": 7947,
      "gy": 7948,
      "_var491": 7949,
      "('": 7950,
      "MAE": 7951,
      "moid": 7952,
      "best_score": 7953,
      "dataframe": 7954,
      "col_0": 7955,
      "_var492": 7956,
      "acc_": 7957,
      "_var493": 7958,
      "_var496": 7959,
      "_var494": 7960,
      "norm": 7961,
      "_var495": 7962,
      "Inp": 7963,
      "soft": 7964,
      "ampled": 7965,
      "ll": 7966,
      "classes": 7967,
      "pca": 7968,
      "_var497": 7969,
      "MaxPooling2D": 7970,
      "hour": 7971,
      "forest": 7972,
      "ax_2": 7973,
      "_var498": 7974,
      "_labels": 7975,
      "generator": 7976,
      "hid": 7977,
      "Dataset": 7978,
      "curren": 7979,
      "pad": 7980,
      "_var500": 7981,
      "set_xlabel": 7982,
      "plic": 7983,
      "ec": 7984,
      "_var499": 7985,
      "quest": 7986,
      "SibSp": 7987,
      "art_": 7988,
      "BatchNormalization": 7989,
      "Ab": 7990,
      "ases": 7991,
      "_columns": 7992,
      "gamma": 7993,
      "adam": 7994,
      "X_3": 7995,
      "Recall": 7996,
      "Cond": 7997,
      "actual": 7998,
      "Family": 7999,
      "_var503": 8000,
      "isna": 8001,
      "lr_0": 8002,
      "_var502": 8003,
      "Input": 8004,
      "_var501": 8005,
      "1_1": 8006,
      "i_4": 8007,
      "rb": 8008,
      "T_": 8009,
      "_var505": 8010,
      "_var504": 8011,
      "Parch": 8012,
      "parse": 8013,
      "home": 8014,
      "y_valid": 8015,
      "include": 8016,
      "_var506": 8017,
      "300": 8018,
      "ML": 8019,
      "ample_": 8020,
      "tre": 8021,
      "eath": 8022,
      "_SIZE": 8023,
      "match": 8024,
      "n_neighbors": 8025,
      "pickle": 8026,
      "fix": 8027,
      "_var507": 8028,
      "xgboost": 8029,
      "\":": 8030,
      "spec": 8031,
      "TP": 8032,
      "pool": 8033,
      "_var508": 8034,
      "gs": 8035,
      "_var510": 8036,
      "data_4": 8037,
      "_var509": 8038,
      "erson": 8039,
      "ak": 8040,
      "prob": 8041,
      "3_0": 8042,
      "ser": 8043,
      "raud": 8044,
      "lack": 8045,
      "thod": 8046,
      "lst": 8047,
      "mount": 8048,
      "ty": 8049,
      "150": 8050,
      "x_test_0": 8051,
      "_sh": 8052,
      "IC": 8053,
      "ill": 8054,
      "dt_": 8055,
      "GE": 8056,
      "Size": 8057,
      "imp": 8058,
      "Sto": 8059,
      "_var511": 8060,
      "lect_": 8061,
      "listdir": 8062,
      "high": 8063,
      "country": 8064,
      "iterion": 8065,
      "create": 8066,
      "_var512": 8067,
      "yn": 8068,
      "_var514": 8069,
      "_feat": 8070,
      "arr": 8071,
      "_var513": 8072,
      "_var515": 8073,
      "ocab": 8074,
      "_preds": 8075,
      "sigmoid": 8076,
      "_classes": 8077,
      "_log": 8078,
      "icket": 8079,
      "ensor": 8080,
      "normalize": 8081,
      "filters": 8082,
      "_var517": 8083,
      "action": 8084,
      "_var516": 8085,
      "week": 8086,
      "_var520": 8087,
      "_var518": 8088,
      "scipy": 8089,
      "abetes": 8090,
      "self_5": 8091,
      "ort_": 8092,
      "Precision": 8093,
      "'\\\\": 8094,
      "_tr": 8095,
      "_regress": 8096,
      "Transform": 8097,
      "errors": 8098,
      "ratio": 8099,
      "224": 8100,
      "feature_importances": 8101,
      "SS": 8102,
      "_var519": 8103,
      "alk": 8104,
      "--'": 8105,
      "arge": 8106,
      "state": 8107,
      "labels_0": 8108,
      "shi": 8109,
      "ract": 8110,
      "_var521": 8111,
      "itude": 8112,
      "combine": 8113,
      "float32": 8114,
      "quant": 8115,
      "Adam": 8116,
      "_var522": 8117,
      ":,": 8118,
      "_var525": 8119,
      "rd": 8120,
      "bayes": 8121,
      "svc": 8122,
      "_var524": 8123,
      "_var523": 8124,
      "_var526": 8125,
      "_submission": 8126,
      "_var527": 8127,
      "actor": 8128,
      "_var528": 8129,
      "x1": 8130,
      "_token": 8131,
      "IM": 8132,
      "softmax": 8133,
      "fmt": 8134,
      "ax2": 8135,
      "Clo": 8136,
      "bil": 8137,
      "rename": 8138,
      "_var529": 8139,
      "87": 8140,
      "49": 8141,
      "best_model": 8142,
      "eng": 8143,
      "s_3": 8144,
      "ience": 8145,
      "sso": 8146,
      "_var530": 8147,
      "MinMax": 8148,
      "encod": 8149,
      "y_predict": 8150,
      "ity_": 8151,
      "_of": 8152,
      "black": 8153,
      "sales": 8154,
      "original": 8155,
      "train_3": 8156,
      "merged": 8157,
      "_var535": 8158,
      "ylim": 8159,
      "outliers": 8160,
      "Lasso": 8161,
      "ason": 8162,
      "units": 8163,
      "criterion": 8164,
      "led": 8165,
      "_var532": 8166,
      "GD": 8167,
      "pose": 8168,
      "_var534": 8169,
      "_var531": 8170,
      "pat": 8171,
      "_var536": 8172,
      "select_": 8173,
      "puter": 8174,
      "df_9": 8175,
      "_var533": 8176,
      "_var538": 8177,
      "_var537": 8178,
      "Dis": 8179,
      "dr": 8180,
      "keys": 8181,
      "rating": 8182,
      "acter": 8183,
      "book": 8184,
      "Hot": 8185,
      "_var540": 8186,
      "MinMaxScaler": 8187,
      "_e": 8188,
      "_age": 8189,
      "random_forest": 8190,
      "_B": 8191,
      "_params": 8192,
      "application": 8193,
      "_A": 8194,
      "try_": 8195,
      "user": 8196,
      "categor": 8197,
      "_var539": 8198,
      "_N": 8199,
      "test_2": 8200,
      "best_estimator": 8201,
      "eek": 8202,
      "Positive": 8203,
      "69": 8204,
      "_dummies": 8205,
      "qual": 8206,
      "_F": 8207,
      "gram": 8208,
      "Transformer": 8209,
      "_var541": 8210,
      "ols": 8211,
      "To": 8212,
      "data_train": 8213,
      "x_5": 8214,
      "_var542": 8215,
      "green": 8216,
      "_var543": 8217,
      "how": 8218,
      "vert": 8219,
      "_weights": 8220,
      "DecisionTreeRegressor": 8221,
      "embedding": 8222,
      "ans": 8223,
      "%.": 8224,
      "_var545": 8225,
      "_svm": 8226,
      "_var544": 8227,
      "skew": 8228,
      "optimizers": 8229,
      "/'": 8230,
      "_data_1": 8231,
      "_image": 8232,
      "edge": 8233,
      "_var546": 8234,
      "min_samples_leaf": 8235,
      "_var547": 8236,
      "Lot": 8237,
      "_var548": 8238,
      "estyle": 8239,
      "_var550": 8240,
      "dm": 8241,
      "window": 8242,
      "amp": 8243,
      "owa": 8244,
      "89": 8245,
      "_var549": 8246,
      "train_X": 8247,
      "\",": 8248,
      "_proba": 8249,
      "Set": 8250,
      "method": 8251,
      "ince": 8252,
      "system": 8253,
      "iowa": 8254,
      "57": 8255,
      "IT": 8256,
      "min_samples_split": 8257,
      "conf_": 8258,
      "():": 8259,
      "logistic": 8260,
      "idual": 8261,
      "oof": 8262,
      "_var551": 8263,
      "_pol": 8264,
      "lasse": 8265,
      "acro": 8266,
      "_length": 8267,
      "linestyle": 8268,
      "center": 8269,
      "forecast": 8270,
      "int_": 8271,
      "direct": 8272,
      "[(": 8273,
      "ript": 8274,
      "f_0": 8275,
      "Word": 8276,
      "_M": 8277,
      "_var552": 8278,
      "_var554": 8279,
      "data_5": 8280,
      "_var553": 8281,
      "_var555": 8282,
      "filterwarnings": 8283,
      "_dim": 8284,
      "feature_names": 8285,
      "emale": 8286,
      "U0001": 8287,
      "DF": 8288,
      "US": 8289,
      ")',": 8290,
      "tokenizer": 8291,
      "_var556": 8292,
      "Squar": 8293,
      "sup": 8294,
      "_var557": 8295,
      "'''": 8296,
      "_splits": 8297,
      "Confirmed": 8298,
      "_var558": 8299,
      "cl": 8300,
      "Imputer": 8301,
      "osition": 8302,
      "hild": 8303,
      "pon": 8304,
      "ed_0": 8305,
      "block": 8306,
      "_var559": 8307,
      "rf_model": 8308,
      "face": 8309,
      "pace": 8310,
      "mod": 8311,
      "KNN": 8312,
      "steps": 8313,
      "y_pred_2": 8314,
      "requen": 8315,
      "AUC": 8316,
      "_var560": 8317,
      "cn": 8318,
      "pop": 8319,
      "self_6": 8320,
      "man": 8321,
      "formance": 8322,
      "ide": 8323,
      "gment": 8324,
      "_k": 8325,
      "_var562": 8326,
      "model_5": 8327,
      "58": 8328,
      "_var561": 8329,
      "43": 8330,
      "_var565": 8331,
      "_var563": 8332,
      "ATH": 8333,
      "_var564": 8334,
      "dent": 8335,
      "tq": 8336,
      "y_test_pred": 8337,
      "prop": 8338,
      "ROC": 8339,
      "df_10": 8340,
      "ward": 8341,
      "hor": 8342,
      "GaussianNB": 8343,
      "walk": 8344,
      "mar": 8345,
      "ED": 8346,
      "X_test_2": 8347,
      "select_dtypes": 8348,
      "_var567": 8349,
      "_var566": 8350,
      "fa": 8351,
      "lem": 8352,
      "best_estimator_": 8353,
      "remove": 8354,
      "_res": 8355,
      "correlation": 8356,
      "_var568": 8357,
      "white": 8358,
      "pus": 8359,
      "real": 8360,
      "lip": 8361,
      "_dist": 8362,
      "izes": 8363,
      "variable": 8364,
      "PCA": 8365,
      "2_1": 8366,
      "_var570": 8367,
      "rs": 8368,
      "Distribution": 8369,
      "_var569": 8370,
      "math": 8371,
      "sentence": 8372,
      "_sum": 8373,
      "_table": 8374,
      "los": 8375,
      "sequence": 8376,
      "annel": 8377,
      "counts": 8378,
      "_th": 8379,
      "iance": 8380,
      "Mon": 8381,
      "quantile": 8382,
      "_var572": 8383,
      "_var571": 8384,
      "tail": 8385,
      "knn_0": 8386,
      "er_0": 8387,
      "Ticket": 8388,
      "_price": 8389,
      "location": 8390,
      "__init_": 8391,
      "defa": 8392,
      "_var574": 8393,
      "n_splits": 8394,
      "_var573": 8395,
      "_var575": 8396,
      "heck": 8397,
      "sex": 8398,
      "OneHot": 8399,
      "_var577": 8400,
      "ru": 8401,
      "ified": 8402,
      "__init__": 8403,
      "OL": 8404,
      "hy": 8405,
      "diabetes": 8406,
      "_var576": 8407,
      "gree": 8408,
      "_var580": 8409,
      "_range": 8410,
      ",)": 8411,
      "_func2": 8412,
      "_per_": 8413,
      "img_": 8414,
      "_var578": 8415,
      "eam": 8416,
      "Ada": 8417,
      "main": 8418,
      "cond": 8419,
      "_recall": 8420,
      "vis": 8421,
      "pipe": 8422,
      "_lr": 8423,
      "ients": 8424,
      "_batch": 8425,
      "_clu": 8426,
      "_var579": 8427,
      "ank": 8428,
      "fig_1": 8429,
      "so": 8430,
      "atal": 8431,
      "df_t": 8432,
      "76": 8433,
      "cluster": 8434,
      "regression": 8435,
      "bound": 8436,
      "cust": 8437,
      "ssion": 8438,
      "outputs": 8439,
      "train_index": 8440,
      "itializer": 8441,
      "cap": 8442,
      "ash": 8443,
      "nr": 8444,
      "tweet": 8445,
      "mn": 8446,
      "},": 8447,
      "_var581": 8448,
      "_var585": 8449,
      "Simple": 8450,
      "_var583": 8451,
      "self_7": 8452,
      "xlim": 8453,
      "_var582": 8454,
      "cv_results": 8455,
      "OneHotEncoder": 8456,
      "json": 8457,
      "og": 8458,
      "ay_": 8459,
      "p_0": 8460,
      "_var586": 8461,
      "att": 8462,
      "veral": 8463,
      "multi": 8464,
      "smo": 8465,
      "_var584": 8466,
      "_var588": 8467,
      "ada": 8468,
      "_dt": 8469,
      "_var587": 8470,
      "lb": 8471,
      "Rat": 8472,
      "ject": 8473,
      "naive_": 8474,
      "SVM": 8475,
      "y_train_pred": 8476,
      "delta": 8477,
      "self_1": 8478,
      "')": 8479,
      "enc": 8480,
      "tmp": 8481,
      "_var589": 8482,
      "verall": 8483,
      "iterat": 8484,
      "_var590": 8485,
      "_vector": 8486,
      "current_": 8487,
      "_ex": 8488,
      "lm": 8489,
      "_21": 8490,
      "Colum": 8491,
      "_sto": 8492,
      "string": 8493,
      "one_": 8494,
      "ific": 8495,
      "_var591": 8496,
      "_data_": 8497,
      "compon": 8498,
      "sis": 8499,
      "ING": 8500,
      "ev": 8501,
      "_var592": 8502,
      "enate": 8503,
      "_var594": 8504,
      "validat": 8505,
      "tqdm": 8506,
      "_df_3": 8507,
      "y_train_2": 8508,
      "_var595": 8509,
      "to_datetime": 8510,
      "74": 8511,
      "_bin": 8512,
      "_var593": 8513,
      "cessed": 8514,
      "x_6": 8515,
      "79": 8516,
      "XGBClassifier": 8517,
      "non": 8518,
      "ital": 8519,
      "********": 8520,
      "character": 8521,
      "i_5": 8522,
      "Import": 8523,
      "ou": 8524,
      "_var596": 8525,
      "xticklabels": 8526,
      "sorted": 8527,
      "level": 8528,
      "light": 8529,
      "_var599": 8530,
      "naive_bayes": 8531,
      "BsmtFin": 8532,
      "db": 8533,
      "eg": 8534,
      "_var600": 8535,
      "UR": 8536,
      "ery": 8537,
      "y_test_2": 8538,
      "_var598": 8539,
      "\\'": 8540,
      "sters": 8541,
      "_var597": 8542,
      "area": 8543,
      "search": 8544,
      "ang": 8545,
      "my_": 8546,
      "56": 8547,
      "AN": 8548,
      "ays": 8549,
      "Activation": 8550,
      "oting": 8551,
      "_E": 8552,
      "kl": 8553,
      "iment": 8554,
      "FP": 8555,
      "fo": 8556,
      "redit": 8557,
      "IMA": 8558,
      "new_": 8559,
      "pport": 8560,
      "_var601": 8561,
      "_var605": 8562,
      "_no": 8563,
      "diag": 8564,
      "Miss": 8565,
      "_best": 8566,
      "ulation": 8567,
      "U0001F": 8568,
      "250": 8569,
      "anced": 8570,
      "Stat": 8571,
      "ender": 8572,
      "_var602": 8573,
      "_var604": 8574,
      "_var606": 8575,
      "_var603": 8576,
      "adj": 8577,
      "_var607": 8578,
      "ids": 8579,
      "Target": 8580,
      "_pr": 8581,
      "flatten": 8582,
      "max_iter": 8583,
      "_pca": 8584,
      "vocab": 8585,
      "train_df_0": 8586,
      "alary": 8587,
      "_var610": 8588,
      "train_4": 8589,
      "_var608": 8590,
      "dataset_0": 8591,
      "State": 8592,
      "ior": 8593,
      "_var609": 8594,
      "_data_2": 8595,
      "data_6": 8596,
      "rf_0": 8597,
      "ix": 8598,
      "j_0": 8599,
      "to_categorical": 8600,
      "cov": 8601,
      "part": 8602,
      "feren": 8603,
      "scaled": 8604,
      "cle": 8605,
      "ous": 8606,
      "86": 8607,
      "_var612": 8608,
      "1e": 8609,
      "Qu": 8610,
      "Sales": 8611,
      "sentim": 8612,
      "rategy": 8613,
      "dates": 8614,
      "verse": 8615,
      "_var611": 8616,
      "AdaBoost": 8617,
      "New": 8618,
      "gray": 8619,
      "macro": 8620,
      "_var613": 8621,
      "_target": 8622,
      "_var615": 8623,
      "content": 8624,
      "_var614": 8625,
      "rfc": 8626,
      "lot": 8627,
      "rest": 8628,
      "Month": 8629,
      "_var617": 8630,
      "directory": 8631,
      "early": 8632,
      "Gr": 8633,
      "_var616": 8634,
      "wo": 8635,
      "zero": 8636,
      "Len": 8637,
      "embedding_": 8638,
      "_var619": 8639,
      "Country": 8640,
      "uniform": 8641,
      "y_3": 8642,
      "UN": 8643,
      "_var620": 8644,
      "_var618": 8645,
      "Cases": 8646,
      "load_": 8647,
      "SGD": 8648,
      "93": 8649,
      "stopwords": 8650,
      "Epoch": 8651,
      "p_": 8652,
      "_pos": 8653,
      "custom": 8654,
      "Ho": 8655,
      "n_0": 8656,
      "itanic": 8657,
      "ice_": 8658,
      "Classification": 8659,
      "best_score_": 8660,
      "self_8": 8661,
      "tools": 8662,
      "Na": 8663,
      "pool_size": 8664,
      "Trans": 8665,
      "_var625": 8666,
      "Gender": 8667,
      "512": 8668,
      "_var621": 8669,
      "ax_3": 8670,
      "_var622": 8671,
      "_var624": 8672,
      "df_all": 8673,
      "_top": 8674,
      "model_name": 8675,
      "df_11": 8676,
      "IR": 8677,
      "_X": 8678,
      "http": 8679,
      "_var623": 8680,
      "wr": 8681,
      "accurac": 8682,
      "Squared": 8683,
      "lins": 8684,
      "most": 8685,
      "GradientBoostingClassifier": 8686,
      "scaler_0": 8687,
      "meta": 8688,
      "testing": 8689,
      "IP": 8690,
      "ploy": 8691,
      "_var628": 8692,
      "_var626": 8693,
      "close": 8694,
      "ypred": 8695,
      "_po": 8696,
      "loan": 8697,
      "_var627": 8698,
      "_22": 8699,
      "1D": 8700,
      "uture": 8701,
      "lines": 8702,
      "linspace": 8703,
      "ams": 8704,
      "dig": 8705,
      "formed": 8706,
      "_var630": 8707,
      "squared": 8708,
      "produ": 8709,
      "84": 8710,
      "vectorizer": 8711,
      "_var629": 8712,
      "mov": 8713,
      "predicted_": 8714,
      "X_train_scaled": 8715,
      "_initializer": 8716,
      "_sen": 8717,
      "px": 8718,
      "axs": 8719,
      "bor": 8720,
      "MS": 8721,
      "url": 8722,
      "down": 8723,
      "drop_": 8724,
      "sto": 8725,
      "feature_importances_": 8726,
      "Cor": 8727,
      "sep": 8728,
      "_accuracy": 8729,
      "t_2": 8730,
      "device": 8731,
      "_r": 8732,
      "degree": 8733,
      "cost": 8734,
      "ATE": 8735,
      "://": 8736,
      "urns": 8737,
      "Tfidf": 8738,
      "_var631": 8739,
      "_var632": 8740,
      "land": 8741,
      "lastic": 8742,
      "Bath": 8743,
      "a_0": 8744,
      "_var635": 8745,
      "_var634": 8746,
      ",\\": 8747,
      "his": 8748,
      "noise": 8749,
      "have": 8750,
      "alg": 8751,
      "set_0": 8752,
      "120": 8753,
      "space": 8754,
      "_var633": 8755,
      "ynomial": 8756,
      "uce": 8757,
      "font": 8758,
      "df_train_0": 8759,
      "Pol": 8760,
      "install": 8761,
      "gin": 8762,
      "lish": 8763,
      "ment_": 8764,
      "entropy": 8765,
      "gbm": 8766,
      "doc": 8767,
      "_var638": 8768,
      "predictions_0": 8769,
      "63": 8770,
      "ower": 8771,
      "_var636": 8772,
      "X_4": 8773,
      "plain": 8774,
      "_var637": 8775,
      "has": 8776,
      "Dr": 8777,
      "_error": 8778,
      "pair": 8779,
      "_var640": 8780,
      "_var639": 8781,
      "l2": 8782,
      "fig_2": 8783,
      "Ext": 8784,
      "ify": 8785,
      "itor": 8786,
      "Us": 8787,
      "ates": 8788,
      "ource": 8789,
      "DA": 8790,
      "poly": 8791,
      "ps": 8792,
      "tem": 8793,
      "ha": 8794,
      "series": 8795,
      "ted": 8796,
      "Region": 8797,
      "Generator": 8798,
      "_var641": 8799,
      "percent": 8800,
      "imputer": 8801,
      "_var645": 8802,
      "73": 8803,
      "92": 8804,
      "SimpleImputer": 8805,
      "_model_1": 8806,
      "Shape": 8807,
      "PO": 8808,
      "_var646": 8809,
      "54": 8810,
      "Y_": 8811,
      "At": 8812,
      "plotly": 8813,
      "_var643": 8814,
      "_var647": 8815,
      "i_6": 8816,
      "training_": 8817,
      "_var642": 8818,
      "_var644": 8819,
      "_var648": 8820,
      "ik": 8821,
      "ire": 8822,
      "_date": 8823,
      "concatenate": 8824,
      "Values": 8825,
      "_frame": 8826,
      "learning": 8827,
      "ratified": 8828,
      "CE": 8829,
      "png": 8830,
      "_var649": 8831,
      "dot": 8832,
      "TN": 8833,
      "_var650": 8834,
      "ars": 8835,
      "cut": 8836,
      "arm": 8837,
      "_features_0": 8838,
      "components": 8839,
      "exper": 8840,
      "etwe": 8841,
      "_clf_0": 8842,
      "ant_": 8843,
      "etween": 8844,
      "requency": 8845,
      "_var651": 8846,
      "initial": 8847,
      "gene": 8848,
      "y_train_": 8849,
      "Ar": 8850,
      "Spec": 8851,
      "_var652": 8852,
      "GBM": 8853,
      "tweet_": 8854,
      "UM": 8855,
      "sign": 8856,
      "df_12": 8857,
      "kmean": 8858,
      "An": 8859,
      "_sizes": 8860,
      "Or": 8861,
      "_var654": 8862,
      "_var655": 8863,
      "_var653": 8864,
      "distance": 8865,
      "accuracy_0": 8866,
      "ting": 8867,
      "1_2": 8868,
      "grad": 8869,
      "________": 8870,
      "ampling": 8871,
      "train_labels": 8872,
      "default": 8873,
      "_var656": 8874,
      "h5": 8875,
      "lamb": 8876,
      "cloud": 8877,
      "s_7": 8878,
      "_total": 8879,
      "ov": 8880,
      "1_": 8881,
      "TH": 8882,
      "samples": 8883,
      "_var660": 8884,
      "column_": 8885,
      "Prediction": 8886,
      "r_": 8887,
      "_var657": 8888,
      "x_7": 8889,
      "_var659": 8890,
      "after": 8891,
      "_var658": 8892,
      "start_": 8893,
      "model_6": 8894,
      "axes_0": 8895,
      "X_train_3": 8896,
      "yticks": 8897,
      "rooms": 8898,
      "classe": 8899,
      "X_test_": 8900,
      "_cn": 8901,
      "alysis": 8902,
      "je": 8903,
      "ws": 8904,
      "sgd": 8905,
      "mnist": 8906,
      "self_9": 8907,
      "_var661": 8908,
      "_precision": 8909,
      "_var662": 8910,
      "_test_1": 8911,
      "Var": 8912,
      "_rate": 8913,
      "_23": 8914,
      "lw": 8915,
      "PE": 8916,
      "scal": 8917,
      "_var663": 8918,
      "Stratified": 8919,
      "uild": 8920,
      "resize": 8921,
      "_var666": 8922,
      "_var667": 8923,
      "((": 8924,
      "_var665": 8925,
      "_var664": 8926,
      "_dict_": 8927,
      "each": 8928,
      "ven": 8929,
      "_var668": 8930,
      "atalities": 8931,
      "hidden": 8932,
      "59": 8933,
      "Churn": 8934,
      "strides": 8935,
      "72": 8936,
      "_var669": 8937,
      "_du": 8938,
      "rec": 8939,
      "test_index": 8940,
      "conf_matrix": 8941,
      "extraction": 8942,
      "_func3": 8943,
      "_regression": 8944,
      "male": 8945,
      "_var670": 8946,
      "cp": 8947,
      "corpus": 8948,
      "'./": 8949,
      "long": 8950,
      "_sample": 8951,
      "ai": 8952,
      "Y_0": 8953,
      "pred_": 8954,
      "tfidf": 8955,
      "train_5": 8956,
      "test_3": 8957,
      "'-'": 8958,
      "train_data_0": 8959,
      "].": 8960,
      "conta": 8961,
      "config": 8962,
      "eather": 8963,
      "dump": 8964,
      "DT": 8965,
      "fn": 8966,
      "_tex": 8967,
      "_var671": 8968,
      "pip": 8969,
      "_var672": 8970,
      "x2": 8971,
      "Importance": 8972,
      "img_0": 8973,
      "col_1": 8974,
      "_var676": 8975,
      "shap": 8976,
      "_var674": 8977,
      "ersion": 8978,
      "rbf": 8979,
      "plit_": 8980,
      "'--'": 8981,
      "_var673": 8982,
      "_com": 8983,
      "reg_0": 8984,
      "_var677": 8985,
      "encoding": 8986,
      "_temp": 8987,
      "()(": 8988,
      "_var675": 8989,
      "ameter": 8990,
      "kernel_initializer": 8991,
      "Ear": 8992,
      "XGBRegressor": 8993,
      "y_hat": 8994,
      "_var678": 8995,
      "grid_": 8996,
      "mit": 8997,
      "02": 8998,
      "x_val": 8999,
      "_24": 9000,
      "ription": 9001,
      "status": 9002,
      "_var680": 9003,
      "tron": 9004,
      "fc": 9005,
      "91": 9006,
      "rees": 9007,
      "_var679": 9008,
      "####": 9009,
      "node": 9010,
      "pkl": 9011,
      "10000": 9012,
      "avg_": 9013,
      "Flr": 9014,
      "data_7": 9015,
      "uld": 9016,
      "_var682": 9017,
      "IS": 9018,
      "self_0": 9019,
      "IL": 9020,
      "function": 9021,
      "_mode": 9022,
      "_var681": 9023,
      "DS": 9024,
      "y_pred_3": 9025,
      "_vect": 9026,
      "Exter": 9027,
      "CT": 9028,
      "_var685": 9029,
      "_var684": 9030,
      "X1": 9031,
      "_var683": 9032,
      "season": 9033,
      "rank": 9034,
      "_var686": 9035,
      "losses": 9036,
      "ations": 9037,
      "scatterplot": 9038,
      "except": 9039,
      "List": 9040,
      "solver": 9041,
      "Blue": 9042,
      "nunique": 9043,
      "factor": 9044,
      "nodes": 9045,
      "_df_4": 9046,
      "_var687": 9047,
      "hold": 9048,
      "kfold": 9049,
      "from_": 9050,
      "DataGenerator": 9051,
      "person": 9052,
      "08": 9053,
      "ets": 9054,
      "perat": 9055,
      "_var688": 9056,
      "test_X": 9057,
      "total_": 9058,
      "diff": 9059,
      "train_size": 9060,
      "classifier_0": 9061,
      "_var689": 9062,
      "_var690": 9063,
      "income": 9064,
      "bility": 9065,
      "Column": 9066,
      "s_4": 9067,
      "square": 9068,
      "min_": 9069,
      "history_0": 9070,
      "ann": 9071,
      "Length": 9072,
      "','": 9073,
      "counter": 9074,
      "neg_": 9075,
      "FN": 9076,
      "d_0": 9077,
      "ural": 9078,
      "inomial": 9079,
      "CountVectorizer": 9080,
      "1st": 9081,
      "serv": 9082,
      "_select": 9083,
      "rfe": 9084,
      "62": 9085,
      "_freq": 9086,
      "Close": 9087,
      "_var691": 9088,
      "theta": 9089,
      "https": 9090,
      "_var694": 9091,
      "ontal": 9092,
      "clf_2": 9093,
      "processed": 9094,
      "_var695": 9095,
      ":':": 9096,
      "FlrSF": 9097,
      "_var692": 9098,
      "bias": 9099,
      "Stopping": 9100,
      "table": 9101,
      "_var693": 9102,
      "strategy": 9103,
      "Early": 9104,
      "tom": 9105,
      "beta": 9106,
      "iod": 9107,
      "53": 9108,
      "AS": 9109,
      "sparse": 9110,
      "x_train_1": 9111,
      "question": 9112,
      "MLP": 9113,
      "hyper": 9114,
      "shop": 9115,
      "_var696": 9116,
      "_var698": 9117,
      "fficient": 9118,
      "isin": 9119,
      "TfidfVectorizer": 9120,
      "_var697": 9121,
      "amount": 9122,
      "dense": 9123,
      "y1": 9124,
      "label_encoder": 9125,
      "class_names": 9126,
      "_reg_0": 9127,
      "ground": 9128,
      "categorical_crossentropy": 9129,
      "ImageDataGenerator": 9130,
      "dec": 9131,
      "_var699": 9132,
      "52": 9133,
      "_var700": 9134,
      "embedding_matrix": 9135,
      "weighted": 9136,
      "sim": 9137,
      "ax_4": 9138,
      "validation_": 9139,
      "lambda": 9140,
      "izontal": 9141,
      "_var701": 9142,
      "_var702": 9143,
      "orith": 9144,
      "df_13": 9145,
      "feature_extraction": 9146,
      "Full": 9147,
      "_var704": 9148,
      "female": 9149,
      "_var706": 9150,
      "feature_name": 9151,
      "not_": 9152,
      "as_index": 9153,
      "_var705": 9154,
      "is_": 9155,
      "af_": 9156,
      "Params": 9157,
      "_var703": 9158,
      "val_accuracy": 9159,
      "03": 9160,
      "monitor": 9161,
      "als": 9162,
      "Color": 9163,
      "_all": 9164,
      "clf_1": 9165,
      "EarlyStopping": 9166,
      "Th": 9167,
      "Not": 9168,
      "images_0": 9169,
      "Cat": 9170,
      "cul": 9171,
      "self_10": 9172,
      "_var710": 9173,
      "_var708": 9174,
      "result_0": 9175,
      "SM": 9176,
      "tries": 9177,
      "Income": 9178,
      "known": 9179,
      "tree_": 9180,
      "days": 9181,
      "game": 9182,
      "test_df_0": 9183,
      "_var707": 9184,
      "ceptron": 9185,
      "ot_": 9186,
      "_var709": 9187,
      "olid": 9188,
      "_steps": 9189,
      "ima": 9190,
      "ATA": 9191,
      "selected": 9192,
      "Plot": 9193,
      "_L": 9194,
      "expand": 9195,
      "option": 9196,
      "acet": 9197,
      "83": 9198,
      "hood": 9199,
      "_subplot": 9200,
      "ponse": 9201,
      "Report": 9202,
      "ATION": 9203,
      "cation": 9204,
      "_model_2": 9205,
      "grid_search_0": 9206,
      "PA": 9207,
      "features_0": 9208,
      "_smo": 9209,
      "Extra": 9210,
      "ade": 9211,
      "TE": 9212,
      "_tensor": 9213,
      "arning": 9214,
      "ultinomial": 9215,
      "educ": 9216,
      "test_df_2": 9217,
      "trace": 9218,
      "train_df_1": 9219,
      "OTE": 9220,
      "subset": 9221,
      "val_y": 9222,
      "coeff": 9223,
      "Day": 9224,
      "ci": 9225,
      "_var716": 9226,
      "label_0": 9227,
      "ront": 9228,
      "cept_": 9229,
      "_output": 9230,
      "let": 9231,
      "_train_1": 9232,
      "stab": 9233,
      "alty": 9234,
      "file_path": 9235,
      "41": 9236,
      "_var715": 9237,
      "SVR": 9238,
      "06": 9239,
      "_var711": 9240,
      "nos": 9241,
      "Of": 9242,
      "Status": 9243,
      "_var714": 9244,
      "Lay": 9245,
      "ustom": 9246,
      "_var712": 9247,
      "fficients": 9248,
      "decision_tree": 9249,
      "_var717": 9250,
      "test_y": 9251,
      "strat": 9252,
      "X2": 9253,
      "leaf_": 9254,
      "Ret": 9255,
      "_var718": 9256,
      "_var720": 9257,
      "_var713": 9258,
      "x_8": 9259,
      "ator": 9260,
      "pred_0": 9261,
      "Mas": 9262,
      "align": 9263,
      "eval_": 9264,
      "_var719": 9265,
      "ison": 9266,
      "lstm": 9267,
      "cm_1": 9268,
      "gr": 9269,
      "_var721": 9270,
      "ly_": 9271,
      "_data_3": 9272,
      "regular": 9273,
      "_var725": 9274,
      "mic": 9275,
      "X_test_scaled": 9276,
      "patience": 9277,
      "MP": 9278,
      "Vnr": 9279,
      "binary_crossentropy": 9280,
      "MI": 9281,
      "--------------------------------": 9282,
      "Overall": 9283,
      "orange": 9284,
      "_new": 9285,
      "only": 9286,
      "_var724": 9287,
      "row_0": 9288,
      "ments": 9289,
      "_var727": 9290,
      "intercept_": 9291,
      "txt": 9292,
      "_titanic": 9293,
      "warm": 9294,
      "_var726": 9295,
      "_var729": 9296,
      "_me": 9297,
      "jor": 9298,
      "strip": 9299,
      "'[": 9300,
      "_G": 9301,
      "hand": 9302,
      "Text": 9303,
      "_var722": 9304,
      "points": 9305,
      "cnn": 9306,
      "ception": 9307,
      "cols_0": 9308,
      "_var728": 9309,
      "freq": 9310,
      "pie": 9311,
      "_width": 9312,
      "_tfidf": 9313,
      "residual": 9314,
      "Yr": 9315,
      "find": 9316,
      "decode": 9317,
      "_var723": 9318,
      "_var730": 9319,
      "}%'": 9320,
      "ssage": 9321,
      "StratifiedKFold": 9322,
      "Pr": 9323,
      "hot_": 9324,
      "MasVnr": 9325,
      "::": 9326,
      "tab": 9327,
      "_indices": 9328,
      "crim": 9329,
      "tag": 9330,
      "dio": 9331,
      "drop_first": 9332,
      "mlp": 9333,
      "_O": 9334,
      "ados": 9335,
      "ail": 9336,
      "TRA": 9337,
      "_var731": 9338,
      "bank": 9339,
      "tun": 9340,
      "_var732": 9341,
      "correct": 9342,
      "early_sto": 9343,
      "X_test_3": 9344,
      "Select": 9345,
      "Hist": 9346,
      "_var733": 9347,
      "test_df_1": 9348,
      "rosstab": 9349,
      "aw": 9350,
      "_and": 9351,
      "rcParams": 9352,
      "_var734": 9353,
      "_dir": 9354,
      "gc": 9355,
      "seq": 9356,
      "test_pred": 9357,
      "ivity": 9358,
      "report": 9359,
      "churn": 9360,
      "itch": 9361,
      "LU": 9362,
      "labels_": 9363,
      "g_0": 9364,
      "_var735": 9365,
      "preprocessor": 9366,
      "2_2": 9367,
      "_array": 9368,
      "k_0": 9369,
      "IQ": 9370,
      "Man": 9371,
      "_var737": 9372,
      "Check": 9373,
      "_var738": 9374,
      "i_7": 9375,
      "_var740": 9376,
      "int64": 9377,
      "adjust": 9378,
      "_var736": 9379,
      "71": 9380,
      "Est": 9381,
      "max_leaf_": 9382,
      "card": 9383,
      "Randomized": 9384,
      "61": 9385,
      "LGBM": 9386,
      "_var739": 9387,
      "roll": 9388,
      "dark": 9389,
      "catter": 9390,
      "test_labels": 9391,
      "))]": 9392,
      "t_0": 9393,
      "inte": 9394,
      "_scaler": 9395,
      "2nd": 9396,
      "bot": 9397,
      "crosstab": 9398,
      "Is": 9399,
      "Di": 9400,
      "_var741": 9401,
      "idx_0": 9402,
      "cho": 9403,
      "contin": 9404,
      "uess": 9405,
      "ives": 9406,
      "dropout": 9407,
      "final_": 9408,
      "index_col": 9409,
      "pass": 9410,
      "inn": 9411,
      "glob": 9412,
      "histplot": 9413,
      "venue": 9414,
      "roup": 9415,
      "df_14": 9416,
      "channel": 9417,
      "compar": 9418,
      "X_5": 9419,
      "_var745": 9420,
      "_var744": 9421,
      "Week": 9422,
      "_var746": 9423,
      "duplic": 9424,
      "les": 9425,
      "predictions_": 9426,
      "statsmodels": 9427,
      "_svc": 9428,
      "_tun": 9429,
      "_var742": 9430,
      "_var747": 9431,
      "test_4": 9432,
      "Glo": 9433,
      "ATCH": 9434,
      "imum": 9435,
      "Counter": 9436,
      "ler": 9437,
      "imread": 9438,
      "_var743": 9439,
      "peed": 9440,
      "_idx": 9441,
      "_var748": 9442,
      "feature_importance": 9443,
      "_PATH": 9444,
      "Des": 9445,
      "randint": 9446,
      "labe": 9447,
      "image_0": 9448,
      "displ": 9449,
      "_norm": 9450,
      "AP": 9451,
      "================": 9452,
      "_year": 9453,
      "dict_": 9454,
      "ohe": 9455,
      "data_8": 9456,
      "_function": 9457,
      "subsample": 9458,
      "2d": 9459,
      "Liv": 9460,
      "82": 9461,
      "you": 9462,
      "that": 9463,
      "accuracies": 9464,
      "Blues": 9465,
      "update": 9466,
      "Abv": 9467,
      "ones": 9468,
      "lec": 9469,
      "Team": 9470,
      "vince": 9471,
      "categories": 9472,
      "_R": 9473,
      "Category": 9474,
      "_knn": 9475,
      "explain": 9476,
      "AdaBoostClassifier": 9477,
      "_25": 9478,
      "mail": 9479,
      "IQR": 9480,
      "_30": 9481,
      "prefix": 9482,
      "_posit": 9483,
      "df_c": 9484,
      "_var751": 9485,
      "_var750": 9486,
      "_f1": 9487,
      "num_classes": 9488,
      "spam": 9489,
      "mu": 9490,
      "t_3": 9491,
      "grid_0": 9492,
      "SMOTE": 9493,
      "51": 9494,
      "_var749": 9495,
      "files": 9496,
      "Coe": 9497,
      "DI": 9498,
      "sample_submission": 9499,
      "gini": 9500,
      "RandomizedSearchCV": 9501,
      "reduc": 9502,
      "ст": 9503,
      "Polynomial": 9504,
      "_acc": 9505,
      "ader": 9506,
      "education": 9507,
      "df_test_0": 9508,
      "rap": 9509,
      "trial": 9510,
      "chi": 9511,
      "generate": 9512,
      "For": 9513,
      "left_": 9514,
      "_var752": 9515,
      "Trees": 9516,
      "Med": 9517,
      "123": 9518,
      "_var753": 9519,
      "_var754": 9520,
      "tion": 9521,
      "y2": 9522,
      "joblib": 9523,
      "AME": 9524,
      "NE": 9525,
      "_plot": 9526,
      "estamp": 9527,
      "model_7": 9528,
      "results_0": 9529,
      "_map": 9530,
      "Token": 9531,
      "mut": 9532,
      "_var755": 9533,
      "Users": 9534,
      "confusion": 9535,
      "fp": 9536,
      "_tim": 9537,
      "train_x": 9538,
      "ory_": 9539,
      "balanced": 9540,
      "self_11": 9541,
      "_str": 9542,
      "ncols": 9543,
      "Path": 9544,
      "Correlation": 9545,
      "unct": 9546,
      "rect_": 9547,
      "reg_": 9548,
      "movi": 9549,
      "_26": 9550,
      "_H": 9551,
      "query": 9552,
      "400": 9553,
      "LL": 9554,
      "180": 9555,
      "bbox": 9556,
      "Bay": 9557,
      "_var756": 9558,
      "make_pipeline": 9559,
      "_var757": 9560,
      "cm_0": 9561,
      "covid": 9562,
      "upport": 9563,
      "augment": 9564,
      "uilt": 9565,
      "110": 9566,
      "Base": 9567,
      "FF": 9568,
      "yaxis": 9569,
      "_images": 9570,
      "_week": 9571,
      "_transformer": 9572,
      "ancer": 9573,
      "kdeplot": 9574,
      "_var758": 9575,
      "_clusters": 9576,
      "VG": 9577,
      "Open": 9578,
      "i_8": 9579,
      "_threshold": 9580,
      "Function": 9581,
      "Global": 9582,
      "split_": 9583,
      "olution": 9584,
      "logreg_0": 9585,
      "ference": 9586,
      "_var759": 9587,
      "_var760": 9588,
      "region": 9589,
      "build": 9590,
      "network": 9591,
      "name_0": 9592,
      "LO": 9593,
      "float64": 9594,
      "kf": 9595,
      "rf_": 9596,
      "Pla": 9597,
      "ah": 9598,
      "1f": 9599,
      "Pet": 9600,
      "lang": 9601,
      "Display": 9602,
      "_var766": 9603,
      "_var767": 9604,
      "yticklabels": 9605,
      "Group": 9606,
      "Yes": 9607,
      "_var763": 9608,
      "_cv_0": 9609,
      "_var762": 9610,
      "interpol": 9611,
      "_with_": 9612,
      "ated_": 9613,
      "stru": 9614,
      "impute": 9615,
      "_func4": 9616,
      "_var761": 9617,
      "Multinomial": 9618,
      "Red": 9619,
      "nosis": 9620,
      "y_train_3": 9621,
      "_var764": 9622,
      "Bayes": 9623,
      "asarray": 9624,
      "edgecolor": 9625,
      "pickup": 9626,
      "add_subplot": 9627,
      "'.'": 9628,
      "ribut": 9629,
      "den_": 9630,
      "_var765": 9631,
      "percentage": 9632,
      "l_0": 9633,
      "survived": 9634,
      "shift": 9635,
      "inverse": 9636,
      "_training": 9637,
      "fig_3": 9638,
      "_var768": 9639,
      "urvi": 9640,
      "ebook": 9641,
      "2020": 9642,
      "_vars": 9643,
      "Cross": 9644,
      "Fi": 9645,
      "val_acc": 9646,
      "al_": 9647,
      "objective": 9648,
      "ATCH_SIZE": 9649,
      ").": 9650,
      "maxlen": 9651,
      "_corr": 9652,
      "sentiment": 9653,
      "negative": 9654,
      "ibut": 9655,
      "lgbm": 9656,
      "alphas": 9657,
      "FamilySize": 9658,
      "ther": 9659,
      "_var769": 9660,
      "texts": 9661,
      "nrows": 9662,
      "in_": 9663,
      "post": 9664,
      "df_15": 9665,
      "right_": 9666,
      "max_leaf_nodes": 9667,
      "trained": 9668,
      "country_": 9669,
      "wb": 9670,
      "seg": 9671,
      "le_": 9672,
      "knn_": 9673,
      "team": 9674,
      "ytest": 9675,
      "pairplot": 9676,
      "Frequency": 9677,
      "v_": 9678,
      "rance": 9679,
      "_var770": 9680,
      "api": 9681,
      "val_X": 9682,
      "Front": 9683,
      "stant": 9684,
      "false": 9685,
      "numb": 9686,
      "dence": 9687,
      "_var772": 9688,
      "_var774": 9689,
      "_var771": 9690,
      "train_scores": 9691,
      "_var773": 9692,
      "]'": 9693,
      "ons": 9694,
      "Loan": 9695,
      "07": 9696,
      "index_0": 9697,
      "reak": 9698,
      "264": 9699,
      "Mar": 9700,
      "best_params": 9701,
      "BsmtFinType": 9702,
      "self_12": 9703,
      "plot_confusion_matrix": 9704,
      "english": 9705,
      "y_4": 9706,
      "_var775": 9707,
      "_var777": 9708,
      "bow": 9709,
      "ogram": 9710,
      "train_6": 9711,
      "n_components": 9712,
      "normalized": 9713,
      "_var776": 9714,
      "_var780": 9715,
      "Rating": 9716,
      "Country_": 9717,
      "_input": 9718,
      "data1": 9719,
      "_var778": 9720,
      "all_": 9721,
      "Tensor": 9722,
      "inder": 9723,
      "Scatter": 9724,
      "alth": 9725,
      "_sq": 9726,
      "named": 9727,
      "_var779": 9728,
      "c_1": 9729,
      "header": 9730,
      "display_": 9731,
      "%%'": 9732,
      "cleaned": 9733,
      "calcul": 9734,
      "drive": 9735,
      "ENT": 9736,
      "Orig": 9737,
      "loader": 9738,
      "example": 9739,
      "extract": 9740,
      "grade": 9741,
      "_var781": 9742,
      "_min": 9743,
      "nl": 9744,
      "isc": 9745,
      "add_": 9746,
      "test_data_0": 9747,
      "_var782": 9748,
      "hidden_": 9749,
      "Ke": 9750,
      "ze": 9751,
      "_var785": 9752,
      "_vec": 9753,
      "_scale": 9754,
      "near": 9755,
      "vif": 9756,
      "_var784": 9757,
      "MultinomialNB": 9758,
      "x_9": 9759,
      "aspect": 9760,
      "_var783": 9761,
      "achine": 9762,
      "now": 9763,
      "_var786": 9764,
      "ket_": 9765,
      "_status": 9766,
      "pg": 9767,
      "mapping": 9768,
      "_var789": 9769,
      "Frontage": 9770,
      "ited": 9771,
      "column_0": 9772,
      "orithm": 9773,
      "+'": 9774,
      "117": 9775,
      "late": 9776,
      "gets": 9777,
      "experiment": 9778,
      "Embedd": 9779,
      "patch": 9780,
      "xaxis": 9781,
      "case": 9782,
      "crimin": 9783,
      "ines": 9784,
      "BATCH_SIZE": 9785,
      "Fatalities": 9786,
      "IG": 9787,
      "cbar": 9788,
      "ен": 9789,
      "boot": 9790,
      "_var790": 9791,
      "0f": 9792,
      "hum": 9793,
      "U0000": 9794,
      "_var788": 9795,
      "_var791": 9796,
      "df_train_1": 9797,
      "y_test_3": 9798,
      "_var795": 9799,
      "folder": 9800,
      "deep": 9801,
      "_var787": 9802,
      "_var794": 9803,
      "GradientBoostingRegressor": 9804,
      "cv_": 9805,
      "_var792": 9806,
      "_var793": 9807,
      "quality": 9808,
      "LotFrontage": 9809,
      "ConfirmedCases": 9810,
      "_W": 9811,
      "family": 9812,
      "master": 9813,
      "_step": 9814,
      "IMAGE": 9815,
      "Labels": 9816,
      "lope": 9817,
      "_child": 9818,
      "s_8": 9819,
      "04": 9820,
      "Categorical": 9821,
      "_var796": 9822,
      "Ite": 9823,
      "(~": 9824,
      "__0": 9825,
      "ched": 9826,
      "orecast": 9827,
      "_pred_0": 9828,
      "idate": 9829,
      "_dataframe": 9830,
      "net_": 9831,
      "update_": 9832,
      "Be": 9833,
      "targets": 9834,
      "resample": 9835,
      "ary_": 9836,
      "_var797": 9837,
      "DATA": 9838,
      "men": 9839,
      "y_pred_4": 9840,
      "_var799": 9841,
      "ample_by": 9842,
      "df5": 9843,
      "_var798": 9844,
      "colsample_by": 9845,
      "Sub": 9846,
      "_i": 9847,
      "ed_1": 9848,
      "ColumnTransformer": 9849,
      "ris": 9850,
      "user_": 9851,
      "ility": 9852,
      "will": 9853,
      "data_test": 9854,
      "ique": 9855,
      "super": 9856,
      "inverse_transform": 9857,
      "std_": 9858,
      "Salary": 9859,
      "ssure": 9860,
      "break": 9861,
      "redit_": 9862,
      "_var806": 9863,
      "dummy": 9864,
      "_var800": 9865,
      "test_scores": 9866,
      ":\\\\": 9867,
      "genre": 9868,
      "Embedding": 9869,
      "gaussian": 9870,
      "reduce": 9871,
      "4_0": 9872,
      "_28": 9873,
      "_point": 9874,
      "_group": 9875,
      "ible": 9876,
      "220": 9877,
      "_var802": 9878,
      "_var801": 9879,
      "_var805": 9880,
      "_var808": 9881,
      "init": 9882,
      "_day": 9883,
      "_var807": 9884,
      "stock": 9885,
      "perature": 9886,
      "Weight": 9887,
      "_var810": 9888,
      "cc": 9889,
      "df_16": 9890,
      "ics": 9891,
      "_poly": 9892,
      "iver": 9893,
      "classes_": 9894,
      "_var812": 9895,
      "train_df_3": 9896,
      "balance": 9897,
      "Custom": 9898,
      "Po": 9899,
      "ReLU": 9900,
      "_var803": 9901,
      "Index": 9902,
      "x_test_1": 9903,
      "a_": 9904,
      "_var809": 9905,
      "_var811": 9906,
      "_models": 9907,
      "_var813": 9908,
      "s_list": 9909,
      "POCH": 9910,
      "Fraud": 9911,
      "ytrain": 9912,
      "ES": 9913,
      "bre": 9914,
      "ink": 9915,
      "_var814": 9916,
      "vec": 9917,
      "future": 9918,
      "ython": 9919,
      "weather": 9920,
      "evaluation": 9921,
      "Estimat": 9922,
      "svr": 9923,
      "fraud": 9924,
      "xt_": 9925,
      "ipul": 9926,
      "imb": 9927,
      "_var804": 9928,
      "to_numpy": 9929,
      "->": 9930,
      "File": 9931,
      "validation_split": 9932,
      "lassifiers": 9933,
      "es_0": 9934,
      "ures": 9935,
      "resampled": 9936,
      "col_2": 9937,
      "_var815": 9938,
      "coefficients": 9939,
      "AM": 9940,
      "ham": 9941,
      "micro": 9942,
      "_categor": 9943,
      "target_size": 9944,
      "Amount": 9945,
      "FE": 9946,
      "rend": 9947,
      "2000": 9948,
      "fin": 9949,
      "AD": 9950,
      "parameter": 9951,
      "NO": 9952,
      "data_9": 9953,
      "abo": 9954,
      "Testing": 9955,
      "81": 9956,
      "int8": 9957,
      "dise": 9958,
      "precision_recall": 9959,
      "jpg": 9960,
      "_var816": 9961,
      "labels_1": 9962,
      "sample_": 9963,
      "radi": 9964,
      "_var819": 9965,
      "_var817": 9966,
      "uation": 9967,
      "Over": 9968,
      "penalty": 9969,
      "ee": 9970,
      "eight_": 9971,
      "Returns": 9972,
      "_ve": 9973,
      "_var818": 9974,
      "_var820": 9975,
      "toarray": 9976,
      "Outcome": 9977,
      "model2": 9978,
      "Neigh": 9979,
      "):'": 9980,
      "va": 9981,
      "engine": 9982,
      "model1": 9983,
      "_var822": 9984,
      "tra": 9985,
      "onehot": 9986,
      "dataset_1": 9987,
      "img_1": 9988,
      "input_dim": 9989,
      "Inter": 9990,
      "_var823": 9991,
      "diagnosis": 9992,
      "ilon": 9993,
      "_var821": 9994,
      "X_6": 9995,
      "_var824": 9996,
      "horizontal": 9997,
      "Curve": 9998,
      "l1": 9999,
      "-%": 10000,
      "_var825": 10001,
      "store": 10002,
      "other": 10003,
      "_transformed": 10004,
      "Country_Region": 10005,
      "barh": 10006,
      "period": 10007,
      "dataset_2": 10008,
      "215": 10009,
      "_sm": 10010,
      "_27": 10011,
      "_var826": 10012,
      "X_train_4": 10013,
      "description": 10014,
      "y_pred_test": 10015,
      "Means": 10016,
      "y_test_": 10017,
      "message": 10018,
      "markers": 10019,
      "X_t": 10020,
      "erv": 10021,
      "FullBath": 10022,
      "_var827": 10023,
      "look": 10024,
      "actions": 10025,
      "_count_": 10026,
      "Absolut": 10027,
      "pad_sequences": 10028,
      "day_": 10029,
      "height_": 10030,
      "class_weight": 10031,
      "df_test_1": 10032,
      "duration": 10033,
      "viz": 10034,
      "wordcloud": 10035,
      "savefig": 10036,
      "suptitle": 10037,
      "High": 10038,
      "df3": 10039,
      "model_8": 10040,
      "exist": 10041,
      "Layer": 10042,
      "Built": 10043,
      "_var829": 10044,
      "_var828": 10045,
      "thresh": 10046,
      "a_1": 10047,
      "xx": 10048,
      "_review": 10049,
      "Predictions": 10050,
      "percentile": 10051,
      "ExtraTrees": 10052,
      "nP": 10053,
      "ily_": 10054,
      "baseline": 10055,
      "Person": 10056,
      "log_reg": 10057,
      "epsilon": 10058,
      "GrLiv": 10059,
      "_var833": 10060,
      "_dataset_": 10061,
      "_var830": 10062,
      "olume": 10063,
      "_var832": 10064,
      "_stats": 10065,
      "ingle": 10066,
      "_percentage": 10067,
      "tour": 10068,
      "_var831": 10069,
      "dents": 10070,
      "ess": 10071,
      "_var834": 10072,
      "loss_0": 10073,
      "gradi": 10074,
      "GrLivArea": 10075,
      "fet": 10076,
      "Add": 10077,
      "_predictions_0": 10078,
      "Clu": 10079,
      "VAL": 10080,
      "}'''": 10081,
      "_vectorizer": 10082,
      "_true": 10083,
      "local": 10084,
      "distribution": 10085,
      "ult_": 10086,
      "_df_5": 10087,
      "125": 10088,
      "aster": 10089,
      "_var837": 10090,
      "stratify": 10091,
      "114": 10092,
      "160": 10093,
      "argets": 10094,
      "can": 10095,
      "n_features": 10096,
      "_var838": 10097,
      "limit": 10098,
      "EL": 10099,
      "_lst": 10100,
      "ias": 10101,
      "ов": 10102,
      "item_cn": 10103,
      "Checkpoint": 10104,
      "_var835": 10105,
      "sorted_": 10106,
      "_series": 10107,
      "ax_5": 10108,
      "Absolute": 10109,
      "latitude": 10110,
      "_var836": 10111,
      "submission_0": 10112,
      "ich": 10113,
      "wise": 10114,
      "voting": 10115,
      "ğer": 10116,
      "ache": 10117,
      "_stop": 10118,
      "pur": 10119,
      "_test_score": 10120,
      "variance": 10121,
      "LinearSVC": 10122,
      "used": 10123,
      "Percentage": 10124,
      "Cap": 10125,
      "change": 10126,
      "ract_": 10127,
      "_var840": 10128,
      "pclass": 10129,
      "ug": 10130,
      "plan": 10131,
      "score_0": 10132,
      "_var841": 10133,
      "223": 10134,
      "ding": 10135,
      "TRAIN": 10136,
      "113": 10137,
      "iff": 10138,
      "df_17": 10139,
      "_sk": 10140,
      "_var839": 10141,
      "House": 10142,
      "return_sequences": 10143,
      "Drive": 10144,
      "train_set": 10145,
      "_var842": 10146,
      "227": 10147,
      "n_samples": 10148,
      "test_set": 10149,
      "_var844": 10150,
      "bootst": 10151,
      "Split": 10152,
      "guess": 10153,
      "ugh": 10154,
      "_var843": 10155,
      "_var845": 10156,
      "Tokenizer": 10157,
      "rms": 10158,
      "orient": 10159,
      "chool": 10160,
      "ampler": 10161,
      "min_child": 10162,
      "train_df_4": 10163,
      "iterations": 10164,
      "_variable": 10165,
      "Low": 10166,
      "ie": 10167,
      "positive": 10168,
      "sr": 10169,
      "_var847": 10170,
      "next": 10171,
      "category_": 10172,
      "disease": 10173,
      "_var846": 10174,
      "(**": 10175,
      "exclude": 10176,
      "accuracy_1": 10177,
      "n_clusters": 10178,
      "train_sizes": 10179,
      "*'": 10180,
      "arity": 10181,
      "notebook": 10182,
      "convert": 10183,
      "ogle": 10184,
      "between": 10185,
      "_trace": 10186,
      "ignore_index": 10187,
      "dom": 10188,
      "collection": 10189,
      "ults": 10190,
      "Elastic": 10191,
      "test_5": 10192,
      "link": 10193,
      "119": 10194,
      "Sent": 10195,
      "_smote": 10196,
      "_code": 10197,
      "bold": 10198,
      "'-": 10199,
      "_duplic": 10200,
      "214": 10201,
      "tu": 10202,
      "set_xticklabels": 10203,
      "scores_0": 10204,
      "_var848": 10205,
      "PolynomialFeatures": 10206,
      "217": 10207,
      "set_option": 10208,
      "_start": 10209,
      "_var849": 10210,
      "answ": 10211,
      "Exterior": 10212,
      "x_10": 10213,
      "petit": 10214,
      "pear": 10215,
      "host": 10216,
      "modelo": 10217,
      "Condition": 10218,
      "Değer": 10219,
      "prices": 10220,
      "ModelCheckpoint": 10221,
      "Top": 10222,
      "_var850": 10223,
      "_mask": 10224,
      "cos": 10225,
      "br": 10226,
      "Produ": 10227,
      "xtrain": 10228,
      "dete": 10229,
      "icle": 10230,
      "Neg": 10231,
      "ino": 10232,
      "regr": 10233,
      "So": 10234,
      "gn": 10235,
      "_29": 10236,
      "args": 10237,
      "_var851": 10238,
      "_var855": 10239,
      "itchen": 10240,
      "115": 10241,
      "_cell": 10242,
      "lood": 10243,
      "urvival": 10244,
      "b_0": 10245,
      "self_13": 10246,
      "_var852": 10247,
      "_var854": 10248,
      "_max": 10249,
      "train_7": 10250,
      "download": 10251,
      "X_7": 10252,
      "df_train_3": 10253,
      "219": 10254,
      "_var853": 10255,
      "228": 10256,
      "test_x": 10257,
      "bs": 10258,
      "whi": 10259,
      "_train_2": 10260,
      "uth": 10261,
      "118": 10262,
      "d_1": 10263,
      "_list_0": 10264,
      "target_names": 10265,
      "instance": 10266,
      "YearBuilt": 10267,
      "213": 10268,
      "Male": 10269,
      "$'": 10270,
      "lemmat": 10271,
      "_var857": 10272,
      "_var858": 10273,
      "Cloud": 10274,
      "let_": 10275,
      "_func5": 10276,
      "who": 10277,
      "no_": 10278,
      "vious": 10279,
      "IMG": 10280,
      "Bagg": 10281,
      "geo": 10282,
      "ized_": 10283,
      "visual": 10284,
      "_var856": 10285,
      "_var859": 10286,
      "_ID": 10287,
      "unknown": 10288,
      "xgb_0": 10289,
      "TO": 10290,
      "text_0": 10291,
      "log_loss": 10292,
      "population": 10293,
      "_li": 10294,
      "train_df_2": 10295,
      "port_": 10296,
      "word_index": 10297,
      "landmark": 10298,
      "\"\\": 10299,
      "ridis": 10300,
      "angle": 10301,
      "tn": 10302,
      "_vis": 10303,
      "_var860": 10304,
      "colsample_bytree": 10305,
      "_set": 10306,
      "df4": 10307,
      "draw": 10308,
      "oliday": 10309,
      "interpolation": 10310,
      "116": 10311,
      "lower_": 10312,
      "imblearn": 10313,
      "ica": 10314,
      "home_data": 10315,
      "pped": 10316,
      "TA": 10317,
      "dy": 10318,
      "composition": 10319,
      "pub": 10320,
      "ords": 10321,
      "are_": 10322,
      "conf": 10323,
      "working": 10324,
      "Facet": 10325,
      "curve": 10326,
      "_cent": 10327,
      "09": 10328,
      "dataset_3": 10329,
      "years": 10330,
      "_cleaned": 10331,
      "UT": 10332,
      "auc_": 10333,
      "POCHS": 10334,
      "Bagging": 10335,
      "mm": 10336,
      "Ma": 10337,
      "ina": 10338,
      "feature_selection": 10339,
      "FacetGrid": 10340,
      "mploy": 10341,
      "101": 10342,
      "_mapping": 10343,
      "MaxPool2D": 10344,
      "_classifier_0": 10345,
      "Manipul": 10346,
      "CC": 10347,
      "IPython": 10348,
      "bagg": 10349,
      "dro": 10350,
      "cool": 10351,
      "emo": 10352,
      "test_score": 10353,
      "uage": 10354,
      "_var863": 10355,
      "regressor_0": 10356,
      "v_0": 10357,
      "ConfusionMatrix": 10358,
      "vg": 10359,
      "_var865": 10360,
      "dule": 10361,
      "bottom": 10362,
      "_var861": 10363,
      "rgb": 10364,
      "int32": 10365,
      "Mrs": 10366,
      "_var862": 10367,
      "_var866": 10368,
      "attent": 10369,
      "nearest": 10370,
      "225": 10371,
      "IF": 10372,
      "df_20": 10373,
      "wine": 10374,
      "history_": 10375,
      "_var867": 10376,
      "linewidths": 10377,
      "_var864": 10378,
      "predictions_1": 10379,
      "assert": 10380,
      "_shape": 10381,
      "],": 10382,
      "duplicated": 10383,
      "mpl": 10384,
      "cel": 10385,
      "ivot": 10386,
      "bilities": 10387,
      "kw": 10388,
      "urance": 10389,
      "preds_0": 10390,
      "Learning": 10391,
      "print_": 10392,
      "nb_0": 10393,
      "_dims": 10394,
      "calculate": 10395,
      "_color": 10396,
      "_predicted": 10397,
      "attribut": 10398,
      "Attr": 10399,
      "source": 10400,
      "ра": 10401,
      "tokens": 10402,
      "KMeans": 10403,
      "Scores": 10404,
      "big": 10405,
      "viridis": 10406,
      "lightgbm": 10407,
      "Bin": 10408,
      "expect": 10409,
      "_regressor": 10410,
      "_var870": 10411,
      "_DIR": 10412,
      "df_s": 10413,
      "aved": 10414,
      "_var871": 10415,
      "under": 10416,
      "outlier": 10417,
      "Pop": 10418,
      "_bound": 10419,
      "ater": 10420,
      "by_": 10421,
      "_tag": 10422,
      "Prop": 10423,
      "на": 10424,
      "216": 10425,
      "_var869": 10426,
      "product": 10427,
      "si": 10428,
      "filepath": 10429,
      "dtree": 10430,
      "800": 10431,
      "_var868": 10432,
      "lectric": 10433,
      "218": 10434,
      "HT": 10435,
      "NUM": 10436,
      "win": 10437,
      "self_14": 10438,
      "BsmtSF": 10439,
      "Neighbor": 10440,
      "l_": 10441,
      "data2": 10442,
      "_var872": 10443,
      "depen": 10444,
      "210": 10445,
      "He": 10446,
      "image_path": 10447,
      "df_train_2": 10448,
      "Sk": 10449,
      "df_val": 10450,
      "_test_2": 10451,
      "correct_": 10452,
      "DO": 10453,
      "ree_": 10454,
      "_var875": 10455,
      "TotalBsmtSF": 10456,
      "past": 10457,
      "performance": 10458,
      "'%'": 10459,
      "iteration": 10460,
      "Don": 10461,
      "flag": 10462,
      "ston": 10463,
      "wor": 10464,
      "df_18": 10465,
      "reco": 10466,
      "_var876": 10467,
      "_len": 10468,
      "response": 10469,
      "_var874": 10470,
      "options": 10471,
      "_for": 10472,
      "y_5": 10473,
      "dia": 10474,
      "Review": 10475,
      "next_": 10476,
      "_var873": 10477,
      "fetch": 10478,
      "_var877": 10479,
      "_var878": 10480,
      "df1_0": 10481,
      "intercept": 10482,
      "Ne": 10483,
      "Sold": 10484,
      "iness": 10485,
      "comput": 10486,
      "background": 10487,
      "My": 10488,
      "cum": 10489,
      "Bu": 10490,
      "Df": 10491,
      "Y_train_0": 10492,
      "5000": 10493,
      "Q3": 10494,
      "e_0": 10495,
      "p_1": 10496,
      "_category": 10497,
      "Cont": 10498,
      "tal": 10499,
[...]
